#version: 0.2 - Trained by `huggingface/tokenizers`
▁ t
▁ [
▁ a
▁t h
i n
S E
P ]
SE P]
r e
o u
▁ s
▁ w
▁[ P
▁[ SEP]
▁th e
o n
e r
a t
i t
▁ b
i s
▁ I
▁ h
▁ c
▁ m
in g
e n
o r
a n
▁ f
▁ p
▁ d
e s
1 ]
▁[P 1]
▁t o
l l
▁ o
e d
0 ]
▁[P 0]
▁a n
▁ y
▁ l
o m
▁y ou
a r
▁ g
a s
▁ n
▁o f
▁ in
l e
o t
i c
D O
C _
▁[ DO
C_ SEP]
▁[DO C_SEP]
u s
▁ is
v e
▁ it
▁b e
▁an d
▁th at
o w
a l
▁ T
▁ e
▁ re
▁w h
e t
. .
▁ on
l y
i d
' s
h e
l d
a y
' t
i on
u t
▁h a
v er
en t
k e
▁f or
s t
a c
▁ A
i m
g h
a m
a ll
a d
ou t
▁ W
o o
▁s t
r o
u n
e .
▁ S
ou ld
it h
▁h e
c h
▁d o
▁n ot
▁l i
o p
s e
i r
▁a re
s .
r i
▁w as
c t
▁w e
▁ha ve
▁w ith
▁ j
us t
t h
▁a s
i f
all y
t t
i ll
▁ H
u p
▁ k
▁th is
▁ "
▁I '
▁T he
▁ Y
gh t
▁m e
▁s e
om e
▁ M
n 't
▁ C
c e
▁ B
▁b ut
▁s h
▁m o
.. .
▁T h
▁the y
u r
▁c an
▁ N
▁a b
▁m y
i l
▁li ke
▁n e
c k
in k
is t
a g
▁you r
▁ D
▁s o
▁j ust
on 't
▁ r
▁ O
▁ P
▁c om
an t
▁ or
on e
t er
n d
o l
▁I t
▁w ould
us e
u l
▁d e
an d
i g
at e
▁g o
at ion
u m
▁a ll
a b
▁w or
es t
▁a t
▁p ro
er s
▁e x
e op
▁g et
a p
▁ab out
▁c on
▁W h
a in
eop le
w w
es s
▁d on't
e re
▁ F
▁ *
▁Y ou
▁wh at
▁th ink
▁ up
▁ v
▁ if
▁a l
▁f r
▁s u
e m
▁ G
▁p eople
▁ R
: /
▁an y
▁s ome
tt p
▁I' m
▁p o
:/ /
en d
▁k n
c om
ttp ://
▁ out
n t
▁ (
ver y
p e
in d
q u
▁m a
▁ un
m ent
▁ E
▁t r
t ;
ar d
ar t
▁c h
e l
s ,
▁kn ow
ac k
▁on e
i ve
am e
▁wh o
▁fr om
i e
d d
▁ &
▁the re
g t;
' re
p p
y .
oo d
as t
▁ L
oo k
c a
▁it 's
▁n o
ou r
▁ us
▁mo re
▁l e
▁& gt;
e ll
ou s
a re
u ck
or t
es .
▁ 1
▁d id
v en
on g
▁the m
0 0
ou gh
u re
id e
▁p re
▁a r
▁p l
▁s ay
▁h as
h ing
o d
o re
▁b y
ca use
▁wh en
▁th an
▁ U
▁w ill
k ing
▁do es
▁t im
ac t
ou nd
▁Th at
com /
h er
o s
▁in t
i ght
▁a g
▁h ow
ow n
▁g u
e ,
e ar
▁ J
d er
h ttp://
it y
ic k
b le
▁the ir
c i
] (
it e
▁th ing
r a
]( http://
▁It 's
p l
w .
f f
▁m an
▁ i
▁l o
▁be cause
▁re ally
ri ght
▁I f
▁ -
a h
e p
u b
▁w ant
▁on ly
u ally
ed .
in t
▁t a
r y
th er
i re
▁c l
▁a ct
▁h is
▁sh ould
s s
▁s a
▁ qu
ww w.
i p
▁to o
an s
▁a m
o se
an g
i es
s o
▁f e
i z
u d
▁e very
p t
▁ha d
w ay
in e
▁it .
▁ en
▁ 2
ic h
▁se e
ic e
▁com p
u ch
▁Wh at
▁c ould
▁ right
ing .
▁we re
dd it
▁ im
b er
▁g ood
▁the n
e ct
om et
▁of f
▁o ther
▁ma ke
i a
▁m uch
▁be en
▁l ook
▁d own
it t
er .
is h
▁wor k
▁w ay
ag e
le t
▁A nd
▁p r
▁y ear
i ous
es ,
i v
▁H e
. com/
▁b l
▁ne ed
o g
▁Th is
▁f uck
▁s omet
▁n ow
▁o ver
▁s p
re at
▁e ven
re e
l f
▁c o
▁w r
▁s he
ou nt
▁N o
at ch
ab le
as s
▁tim e
▁be ing
▁d is
▁you 're
i k
▁h ttp://
▁wh y
am p
▁h im
i le
m o
▁go ing
▁ use
▁b u
▁The y
▁he re
▁h er
▁g ot
m er
▁somet hing
! !
▁S o
▁gu y
▁g r
s h
a k
u e
▁re ad
▁ne ver
i an
▁a c
d e
▁po int
▁st ill
v ing
g e
▁I' ve
y ,
ou ght
▁p art
▁does n't
▁ :
en s
▁can 't
ul t
▁b ack
c on
▁int o
▁B ut
▁mo st
ac e
a il
b e
en ce
p er
▁act ually
▁me an
ir st
▁con t
as e
▁s up
▁c r
t ing
ig n
▁be l
▁did n't
▁I s
oo l
th ing
▁s pe
ic al
d it
e ah
▁H ow
an k
e w
▁I n
▁f un
o b
f ere
) .
re ad
ad e
▁un der
](http:// www.
▁re s
▁re al
▁po st
▁s ame
ic t
w n
at ed
s ?
▁That 's
▁a d
▁ very
tt y
▁ 3
▁wh ich
▁t e
▁c all
w ik
▁we ll
▁th ose
▁ K
▁d ay
p ort
▁that 's
▁com ment
▁b r
k es
▁su re
▁ha pp
▁l a
▁S t
ac h
▁s c
▁re ddit
ab ly
o y
▁wh ere
▁be tt
ot her
▁f irst
f ore
is s
▁ne w
▁C h
▁tr y
* *
se lf
▁some one
▁p er
▁The re
a v
▁pre tty
▁t w
▁ '
▁bel ie
▁al so
f t
f ter
ion .
▁sa id
ers on
i gh
en .
ion s
he re
▁l ot
▁d if
▁W e
i ld
▁th ought
a ve
ot e
u ll
ri end
▁s er
▁ag ain
as on
or m
or g
▁su b
▁D o
ar k
ter n
▁m ay
▁N ot
mer ic
▁ ro
re ss
▁b ad
▁Wh y
▁f ind
▁ta ke
n y
▁ ke
▁pl ay
is m
▁th ough
▁is n't
x t
a .
▁con s
▁bett er
or y
▁re l
▁se em
▁a pp
o c
an ce
b ably
ar y
way s
let ed
▁ V
▁M y
w e
▁p erson
▁e ver
▁o wn
▁man y
c l
at h
▁p h
▁sh it
▁be fore
▁A meric
ed ia
▁f l
▁l ong
▁the se
g r
l ic
▁st art
u al
▁it s
▁ our
▁a fter
▁[ de
▁fe el
▁A l
leted ]
▁[de leted]
or d
ot h
▁c he
▁c ount
ed ,
l ess
u g
▁dif fere
▁t al
ur n
ver s
i ble
▁d r
▁Y eah
▁al ways
at ing
▁o ld
itt le
▁de f
ble m
▁as s
▁W ell
▁m ade
▁th r
▁re ason
▁p ol
▁I' d
▁d es
▁t ell
▁ar t
▁k ind
▁e l
▁a tt
▁ac c
ly .
▁o b
ic ally
▁s m
▁pro bably
▁p ut
▁pro blem
or n
▁ar ound
▁g ir
org /
▁ 4
▁f act
ce pt
▁l ittle
▁m one
▁sh ow
▁B e
on s
ly ,
▁b it
▁lo ve
pe ct
▁tw o
▁l et
▁http:// www.
▁w om
amp ;
▁in st
' ll
▁wr ong
▁belie ve
▁U S
s /
▁ ide
f ul
▁h ard
" .
▁s y
▁k id
▁wor ld
in ce
on t
▁year s
▁us ed
e e
▁li f
h ,
▁that .
▁ $
o st
▁thing s
▁O n
i al
▁e v
▁any thing
' ve
▁a w
▁g reat
re d
▁c ar
er t
▁g en
▁wor d
▁p ay
▁en ough
▁ end
▁re m
od y
ve l
ing ,
▁h igh
▁com m
▁fuck ing
.. ..
▁s l
i b
▁ 5
▁f riend
p h
o x
▁* *
o .
▁s im
▁wh ile
▁it ,
▁ma kes
▁b ig
st and
' d
a it
re ddit
t he
▁c are
a z
▁k ill
▁qu est
o ck
c e.
▁m ight
▁fe w
v es
a ke
▁m on
v ed
▁t er
▁h and
d u
▁you .
. org/
▁in s
▁e m
▁ ...
▁A s
▁m e.
▁r un
ver n
n g
g et
v ot
p le
ere st
▁O b
at er
e ly
i ly
e ver
▁o p
▁le ast
▁in f
am a
▁b as
▁g ive
▁C an
ip edia
▁J ust
id ent
ar m
ub lic
▁re c
ic le
▁be t
▁w atch
at her
▁n ame
u ff
▁any one
l p
▁O r
at es
▁ ent
▁c or
▁with out
▁under stand
or s
is e
▁gir l
l es
▁de c
▁m in
i x
▁get ting
vern ment
▁ke ep
a ,
as h
▁I' ll
▁R ed
iz e
ar n
▁happ en
o ld
a ir
▁j o
▁in v
▁b est
▁st op
▁do ing
▁h um
p os
▁l ast
& amp;
▁Th ank
ere d
▁c ome
▁s ound
i /
e ad
us h
▁mone y
▁l ink
m an
▁ch ang
▁not hing
▁he lp
▁he ad
er ,
ci al
A A
w h
▁se x
on .
▁thr ough
ic s
le ct
▁gu ess
ul ar
▁li ve
ow s
e g
▁c le
k s
▁t ri
e. com/
▁Yeah ,
▁s ch
i ke
en se
op e
▁say ing
▁su ch
▁ex pl
▁he 's
▁go vernment
ar ch
v ie
d ay
▁el se
re s
▁differe nt
at ive
e x
st em
r ist
▁int erest
tern et
▁st r
▁s ince
wik i/
ation .
▁try ing
c ess
ol og
▁l ess
▁Red dit
E R
are nt
wik ipedia
y p
▁No ,
ow er
▁w on
ent ion
▁us ing
g g
re n
▁would n't
▁re p
up id
▁al read
▁j ob
▁ ed
at ter
▁they 're
j ect
▁e as
▁an other
▁c our
▁v ide
▁ch ild
▁bu y
▁re g
b ody
▁: )
▁T H
wikipedia .org/
▁b oth
▁Wh en
m m
en. wikipedia.org/
▁f ar
g le
▁d ri
▁every one
▁a dd
▁s ur
▁art icle
▁as k
en.wikipedia.org/ wiki/
I N
am n
ist s
con d
- -
o ll
▁m ust
▁ex act
▁sy stem
c es
▁ 9
am m
▁in c
p r
00 0
it ion
▁ha ving
▁se en
out ub
▁re f
▁You 're
▁le g
ious ly
▁M ay
le ase
▁c a
ut ion
▁st ate
▁la w
▁sch ool
w atch
in al
▁f ree
us s
▁h ate
▁them .
▁Ob ama
▁ar g
o ot
▁st upid
▁s it
▁quest ion
um b
I T
▁D on't
. "
▁U n
▁O h
▁a p
▁S h
▁seem s
ra el
▁a way
al th
re ct
a w
▁l ist
▁alread y
▁who le
a ul
ation s
y outub
c ed
▁e ith
ar s
p g
t m
▁too .
l o
▁st and
▁v ot
um ent
▁gen er
▁was n't
▁st uff
▁un t
▁tal king
ap p
v =
▁t urn
▁in d
u c
youtub e.com/
n ot
▁ma king
▁rel ig
▁S he
ert ain
▁g ame
▁ =
em ber
? v=
▁lif e
an n
▁c re
w ard
▁again st
▁sup port
youtube.com/ watch
▁b ook
n ce
▁m ind
youtube.com/watch ?v=
i ed
▁A re
▁g am
▁Well ,
or ry
) ,
▁F or
it y.
▁po ss
ar i
▁m iss
▁ 6
ro ll
if ic
s w
▁are n't
oo gle
▁1 0
▁Al so
ict ure
j pg
▁ex t
▁comp let
▁f re
▁R e
O O
▁ide a
? ?
▁c op
▁w ait
▁d ou
▁re t
▁g l
▁there 's
▁f in
y s
es e
▁he ard
▁unt il
▁e ff
t y
h tm
▁m et
▁d one
▁P aul
▁se cond
▁w ar
▁cons id
▁ch ar
ut h
▁pre s
mo st
▁we e
▁" I
le .
▁aw es
▁tim e.
im e
▁p op
▁in ternet
▁y et
ag es
▁won der
▁con f
▁res p
▁G od
▁s et
▁def in
un ch
2 00
▁May be
▁this .
at ure
▁dis c
▁he ll
ou se
ct ion
▁b re
▁call ed
▁ /
▁re st
we en
▁im p
▁f ound
T he
1 1
▁E x
on d
▁vide o
▁qu ite
O U
▁p icture
▁co ll
g er
▁Y es,
▁mon th
▁Americ an
▁Is rael
▁Be cause
▁s k
i er
▁it ?
ar ly
ir d
▁ne xt
b l
▁m atter
▁ag ree
▁wom en
i es.
▁guy s
i ans
al .
▁pro gr
w here
▁N ow
▁me m
▁look s
▁h ope
▁bet ween
▁ 8
or k
c ri
▁on ce
▁D id
ic .
▁pol it
▁count ry
▁s w
▁though .
▁w on't
ot t
▁ex per
ut e
▁ta x
ber t
▁me ans
r u
um ber
ro p
▁f ull
▁may be
▁A ny
▁to p
▁S ome
reddit .com/
er s.
▁c ou
▁get s
b s
▁bl ack
▁comp an
▁m ark
▁Ch rist
▁is s
▁r ather
▁Th en
▁inst ead
▁s ci
al f
▁le arn
▁le ft
ud e
n ing
▁an sw
▁c ur
it s
▁su ck
t e
at s
▁hum an
▁exact ly
▁rem ember
▁in ter
▁A ll
l ed
ation al
od e
▁say s
re nt
▁ .
' m
n e
▁b us
▁h our
▁you ,
▁c ool
▁look ing
ap s
r /
▁now .
▁m us
iz ed
▁your self
r or
▁he ar
▁Wh o
▁che ck
A T
▁s ign
al s
▁h ome
▁w in
▁ 7
c ome
▁pro du
a im
▁f am
▁go d
▁You r
c c
▁ab le
o h
t c
▁c ertain
at e.
. jpg
ic e.
▁w ent
t en
▁e lect
ire d
o ,
ap h
▁cor rect
er ing
1 0
il ity
▁ass um
i -
▁ob v
on -
▁sm all
re t
▁tr u
▁th read
▁pl ace
▁per f
▁that ,
R E
l ish
r it
▁every thing
▁g un
& gt;
ven 't
▁de p
▁think ing
](http:// en.wikipedia.org/wiki/
▁n ice
▁p ass
▁ex p
o ve
it ed
iv es
▁m ar
▁s ing
htm l
▁op en
r ic
▁up .
L L
2 0
▁A ct
▁cour se
▁ id
▁wor th
▁jo ke
▁ex ist
▁ent ire
vot ed
▁expl ain
▁for m
▁pl an
O T
▁there .
▁sc re
▁comp ut
▁to t
if e
▁s ort
ent s
▁c ap
a king
▁my self
▁e tc
▁here .
▁c ame
▁tim es
k en
um p
r act
▁al most
▁p ower
▁ex pect
▁n umber
▁y eah
ang u
▁f ail
▁wee k
▁cl ass
ent .
▁sa w
▁l ar
g in
er n
it ch
▁A t
i ot
▁so l
ag e.
▁S e
at t
▁re qu
▁o pp
▁G ood
▁v al
or .
▁on e.
" ,
▁st ory
▁he alth
T F
it .
▁wom an
▁1 9
e f
u gh
et s
▁arg ument
ou p
in u
▁ha ven't
▁p ublic
▁m il
▁F uck
▁be h
▁ ill
▁ad v
on e.
A N
▁ter m
ow ing
▁v ote
on est
▁T o
▁Do es
▁r ac
▁f il
▁chang e
▁st ud
▁2 0
l and
- s
▁d ist
ou s.
▁ z
▁cl aim
▁m om
▁tal k
▁ ir
id d
▁W ow
b t
se l
▁m en
▁f air
ion ,
▁co st
er v
▁ X
ur ing
y ing
▁c ra
▁F r
▁h alf
- f
a a
▁E very
▁e ach
▁ vers
im es
b r
in es
w are
▁me ,
▁There 's
▁e at
c y
▁l angu
un t
le as
IN G
p ly
▁w ish
ch n
im g
al k
n ess
j or
in ess
▁s ense
▁M c
con om
lo ad
u ght
▁mo vie
▁f av
ing s
▁ ign
▁or ig
end ing
ig ure
▁eith er
c he
▁fun ny
▁out .
▁complet ely
▁ Q
▁m ention
▁A n
it al
ci ally
b o
ate ly
▁Act ually
ill ion
▁bu ll
▁A r
▁E dit
c r
▁P ro
▁ab s
▁s ent
! "
▁d amn
▁Also ,
▁pro f
▁- -
un k
y pe
▁f ood
▁pr ot
▁pl ac
▁p ri
▁e qu
▁2 00
p or
▁an t
▁ed it
pos ed
z y
v ote
▁ad m
▁p ar
▁Thank s
il ar
▁c ase
▁H is
j oy
▁sub m
▁g ay
ers ,
▁On e
▁im ag
is ed
▁v ie
▁c ut
!! !!
▁you ?
C K
p ro
t o
▁n ight
▁exper i
▁p ur
▁is .
▁at he
▁sound s
S .
▁e y
▁He 's
▁id iot
▁G o
O N
▁f oll
▁1 00
▁ ;
out h
- b
▁TH E
▁dr ink
h h
▁N ew
▁new s
▁w ater
at or
▁ma jor
es ?
▁r id
▁h ot
ro ss
▁lo g
ro l
▁f igure
ire ct
vel op
on n
5 0
f er
▁d i
▁a v
▁too k
▁tr ans
▁li ght
E E
▁s mo
l ine
▁kid s
▁c as
ate ver
▁P eople
▁com es
▁p ast
▁s ide
▁read ing
▁need s
▁well .
▁C om
▁c reat
▁op in
▁d et
▁Can ad
▁know ,
ir t
f ort
▁r ap
al ity
▁awes ome
a le
re m
▁wor king
▁mark et
▁eff ect
o le
▁mo ve
ac y
▁s our
▁o k
▁se c
▁any way
](http://www. youtube.com/watch?v=
▁do g
▁t est
com ment
▁W here
▁se lf
om e.
▁all ow
▁ es
▁h or
ri b
▁b ro
▁de ad
▁L et
▁all .
▁comment s
▁g i
▁What 's
ite ly
▁tr ue
▁vie w
l t;
T h
▁p en
▁B ush
▁f ire
/ 0
▁im port
▁m is
▁la ugh
a id
▁to ld
▁pro v
▁tri ed
▁st or
i o
▁n am
s e.
▁t yp
i ent
▁child ren
i pp
en ce.
▁you 've
▁sing le
▁e conom
▁start ed
▁ag re
▁de al
▁gr oup
▁p arent
▁Y OU
▁ Z
▁A pp
ar c
▁ph ot
▁we 're
▁acc ount
? !
▁poss ible
- m
▁m or
pe cially
▁go es
▁su gg
▁s n
▁sugg est
E S
* .
▁want ed
▁bre ak
o f
▁n on-
as ter
▁in cl
▁Edit :
▁m ess
H H
? "
es us
▁ser ious
▁us ually
▁t it
ang e
▁de ath
▁S er
▁s ad
▁E ng
ation ,
▁M an
▁could n't
▁bu ild
, 000
▁people .
▁f ight
▁is ,
▁ex amp
▁en joy
▁C l
un d
D IT
▁mo d
▁spe c
U U
▁me ant
▁B l
▁m ain
▁: (
▁friend s
it ies
▁po s
▁le vel
ar ing
▁to day
f or
sh ip
reddit.com/ r/
▁h ist
▁h u
▁h it
▁st e
in s
▁h old
▁con st
f e
▁im m
▁t roll
id ence
▁f ace
▁wh ite
▁that ?
▁L ook
et her
r y.
ig g
ri ble
▁p un
▁comm un
▁pro per
▁R ep
▁M ost
▁v i
u ri
▁m ed
▁do ll
us ed
▁att ack
▁p e
▁&gt; I
▁fr ont
re am
▁b ab
▁O h,
om b
▁cur rent
he ad
▁sur pr
o id
h aps
itt ing
▁H ere
▁ _
▁min ut
in e.
comment s/
a x
a ult
" ?
ive .
y ou
▁A m
th is
O R
▁work s
▁right .
▁right ?
▁b ar
▁progr am
▁un i
▁e ar
▁a ff
1 2
▁thing .
r ow
▁re d
m ore
▁h ouse
ed ?
▁com pl
on y
er y
A R
able .
▁sim ply
an .
ol ut
▁p age
▁not .
at ic
l ike
are d
▁perf ect
pt ion
it er
▁p ick
▁le ad
▁te chn
▁de velop
▁fav or
▁b o
▁dr ug
▁ch o
▁po or
▁t ype
▁en g
▁f ore
on ,
▁do .
iv ing
▁cont rol
f ull
▁inf orm
l ing
▁sup posed
▁differe nce
▁them sel
▁" W
▁ta king
▁w ind
▁c ol
▁Americ a
▁h onest
▁mus ic
▁sup er
e xt
▁answ er
▁f all
ter s
▁tot ally
an e
▁U p
▁ex cept
▁sh ot
▁ap pe
▁cou ple
▁iss u
m y
n ew
▁s ong
▁s ite
le v
▁ ri
▁import ant
▁mo v
▁like ly
▁E ven
▁so cial
▁H ave
▁as sh
w ork
inu x
▁be come
▁him .
▁l ine
!! !
▁se ll
▁real ize
oo p
vie w
▁orig inal
O L
▁of ten
▁d irect
▁bas ed
▁p lease
r ing
▁ag o
▁fun n
▁on es
et .
▁spe ak
▁th ree
p ose
s ide
▁kn ew
ver t
ur t
▁b all
▁P er
ment .
▁a ir
mo dd
▁am az
onn a
- d
ard s
ur al
▁de m
▁day s
it ing
▁P al
▁r u
l im
▁lar ge
- p
r al
I S
▁le ave
▁s orry
▁sh ort
▁g re
g re
▁examp le
▁( I
. html
▁part ic
▁P l
o int
▁Mc C
h ow
▁wh atever
▁am ount
▁v is
AA AA
op h
▁S orry
l i
olog y
▁O k
u ro
▁bus iness
ant s
▁ ve
▁point .
oc r
▁an n
▁b oy
ap er
▁you 'll
pl oy
▁ro om
ib ly
▁an im
▁lo c
at .
img ur
se arch
▁f ix
▁defin itely
▁p ain
▁cl ose
9 9
s y
t op
g an
▁cr ap
g y
es s.
▁way .
▁or der
ever ,
▁con c
ing ?
idd le
▁than k
imgur .com/
▁res ult
▁S p
▁this ,
▁J ew
s p
n et
ri ed
▁sit u
▁what 's
em pt
▁1 .
▁s ens
▁R o
▁p ot
▁pre v
ri es
▁ac cept
is on
▁interest ing
ion al
- c
▁re pl
▁vers ion
oo f
▁happen ed
▁n orm
▁ser v
n o
▁f an
▁wr ite
▁etc .
ent ly
▁Wh ich
re l
▁D e
d o
t r
t on
▁d ick
▁dri ve
▁want s
▁R on
▁should n't
▁It s
ir c
▁wrong .
▁d uring
▁O f
▁you ng
▁int ell
▁p ie
b y
▁br ain
▁g onna
ul ation
▁vi ol
▁I nd
▁lo st
▁ +
▁o th
▁dis ag
et y
▁sim ilar
▁consid er
ist .
▁so ft
▁li ving
▁eas y
b ook
▁run ning
▁re fere
l er
▁des ign
id ed
/ c
o ly
▁d at
▁produ ct
a ut
▁P lease
f l
▁she 's
▁E DIT
▁comput er
▁so ci
▁p ull
▁McC ain
▁m other
▁sub reddit
▁bit ch
▁for get
▁comm on
▁L ike
th ough
id es
▁J esus
▁play ing
▁off ic
▁f ac
▁M e
end s
▁te xt
▁leg al
▁I r
▁T r
▁( and
▁st ra
▁list en
▁l and
▁ro ck
n er
▁W ould
▁br ing
m od
▁resp ons
▁can not
▁b ill
▁ch ick
O M
r .
arent ly
ic ro
▁f em
▁cl os
▁pre fer
- w
U CK
▁e p
▁opp os
ou d
▁p orn
▁st ay
▁Rep ublic
▁disc uss
▁c ult
▁pol ice
▁A N
▁gi ven
▁They 're
ur b
▁dou bt
▁d umb
ie ld
▁l im
e y
▁ta kes
▁t ast
ound s
i .
▁inv ol
▁W ith
▁se arch
c ing
▁c ent
/ )
▁ca use
3 0
▁c ode
▁com ing
if y
▁& lt;
▁st ore
▁ev idence
▁b ank
▁hu ge
▁Christ ian
▁con v
▁girl s
k ed
▁day .
oo oo
▁certain ly
▁ill eg
▁pri v
▁on .
▁gam es
oo se
▁ er
am er
h .
ou ch
H A
▁l ol
▁y es
▁fun d
▁2 .
▁qu ick
▁word s
iv il
ver age
▁; )
▁m ass
▁l ow
▁st at
▁o cc
com m
▁beh ind
/ s
▁compan y
▁I S
os s
▁year s.
in a
▁m ach
ity ,
6 0
ar ian
▁EDIT :
itt en
▁Re ally
▁ke y
▁f ut
▁a ut
▁i 'm
E N
▁bull sh
▁for g
▁W ind
▁3 0
▁c it
olut ely
▁G oogle
E D
▁know s
▁w ife
▁Eng lish
▁ant i-
▁work .
▁again .
▁st ick
▁a uth
ic ul
▁un less
▁act ual
▁ign or
▁oth ers
▁cl ick
▁p at
.jpg )
▁de b
▁m ag
A M
p ed
▁ar m
▁b ott
▁sh oot
ol ution
▁you 'd
▁pres ident
▁fam ily
▁hour s
in '
▁p iss
g o
▁c amp
▁ DO
▁ 0
▁l ack
as m
▁b unch
le ep
▁sim ple
▁m ist
▁sour ce
ic es
▁m ur
▁Actually ,
full y
pl ay
it ive
▁experi ence
▁gener al
th ing.
▁b ox
ist ic
em ent
▁d ont
ies ,
_ _
▁we bs
ith er
▁f at
▁wh ether
▁spe ll
▁char ac
▁wor se
▁" s
▁l uck
▁shit .
▁t reat
▁y es,
▁tim e,
▁month s
▁res pect
▁watch ing
▁to get
▁toget her
▁G et
▁know .
▁m illion
▁happ ens
▁foll ow
▁relig ion
A S
▁c at
▁ex c
▁s al
▁part y
- h
▁g ave
- t
lf riend
▁it self
ure .
▁imag ine
▁des cri
r aph
▁sp end
ens ive
▁http:// en.wikipedia.org/wiki/
▁ret ard
▁d ie
▁ask ed
and om
▁" f
▁Americ ans
▁happ y
▁W as
▁1 2
▁obv iously
▁re port
i or
▁ ?
▁d est
▁W ait
▁5 0
ism .
▁requ ire
uro pe
▁post ed
▁this ?
▁So ,
▁st re
▁ref er
▁as king
▁T V
▁cle ar
▁& amp;
▁$ 1
▁pr om
▁Y es
ot s
▁mil it
ment s
e ch
E T
▁" S
▁ne cess
▁b en
▁relig ious
l ight
▁ph ys
▁ta ken
▁" A
I D
▁reddit .
▁now ,
▁http://www. youtube.com/watch?v=
▁Ro bert
▁p aid
▁we b
▁On ly
▁though ,
▁lif e.
▁pol ic
ur ch
▁ x
▁langu age
▁d a
▁inst all
is ion
el s
▁m iddle
▁tr uth
▁de mo
▁progr amm
bo ard
ward s
▁work ed
▁de v
▁m ult
▁al ong
▁tru e.
ar y.
▁r a
▁we ird
an ce.
fort un
▁h om
i ally
▁soft ware
E A
▁partic ular
▁k arm
as ed
](http://www. reddit.com/r/
ore d
▁N OT
▁ter ror
a ff
e c
▁them ,
/ comments/
th at
ou n
▁c ivil
ast ic
▁any more
or ld
▁kill ed
▁well ,
▁be at
▁rec ord
▁es pecially
▁Wow ,
er m
▁D em
▁sci ent
▁than ks
▁n et
wh at
e ge
so ft
▁ch ance
it ,
▁I T
f orm
▁polit ical
▁cra zy
r up
in ed
st er
▁G u
▁ext rem
▁" H
▁j ud
▁person al
r on
▁sci ence
▁pr act
▁see ing
▁ #
▁themsel ves
re st
ict ion
is ing
▁can d
▁w alk
▁m edia
a ving
8 0
▁know n
▁re mo
▁parent s
am e.
▁incl ud
▁prot ect
▁good .
▁iss ue
s on.
▁cle arly
f ic
▁s ca
▁s ick
▁R ight
▁gir lfriend
o ver
▁1 5
ah ah
4 0
▁abs olutely
▁yeah ,
ed om
▁minut es
or th
▁ph one
er al
ke y
▁tit le
ain ing
▁ab ove
▁assum e
▁se ver
▁ed uc
Y ou
' .
▁S ure
▁h op
▁be gin
ra w
er man
ap e
il t
▁ev il
▁[ this
▁vot ed
end ed
▁ne ar
im ate
▁I m
▁c irc
▁c ard
▁down vot
e v
▁rid icul
ant .
/ 2
g ress
▁edit :
▁ag o.
▁Q u
f ox
▁str ong
▁auth or
▁stra ight
▁out side
ver se
▁p leas
▁g iving
▁B r
▁li ber
▁f ast
U S
▁mean ,
▁belie f
b all
▁no ,
▁ser iously
▁cr im
▁ |
ang er
. com
▁opin ion
g ing
▁T w
m e
▁eith er.
▁Th ose
g ed
ra q
and s
er ve
o ff
▁sm art
i i
▁bas ically
▁Ser ious
▁f ine
▁P h
▁c uri
▁l ab
▁sl ow
▁stand ard
a f
u u
▁F UCK
s !
▁r andom
▁look ed
en n
I C
▁( or
▁che ap
▁up ,
▁sever al
▁o h
i um
▁man .
▁intell ig
us ing
▁d en
▁favor ite
▁pop ular
- l
p ir
b ut
▁r ul
F F
▁fil m
▁mo der
▁ann oy
▁em ploy
▁or gan
▁s ir
▁D amn
ar .
▁c al
s c
ent y
ent al
▁I raq
in .
ly ing
▁b ody
y n
▁d ue
ap an
s ...
1 5
▁ha ir
▁F l
▁b ought
ic ,
▁B rit
▁A f
▁S c
ic king
▁off .
▁C he
O W
it ution
s "
▁G r
▁here ,
ic e,
▁to .
▁b urn
▁S omet
▁app ro
▁wr itten
ag ed
un g
▁cr it
i en
er ?
▁su c
ic s.
▁me et
▁allow ed
ar r
▁gl ad
itt ed
▁att empt
icro soft
▁b ac
▁demo cr
▁Paul son.
if t
▁play ed
on es
▁obv ious
▁awes ome.
▁long er
iz ation
▁No .
p s
le x
▁call ing
as .
u k
▁M ac
p ut
▁wor st
▁M ore
▁E urope
▁ne g
▁b or
▁B y
▁h urt
▁inc re
n ow
▁some where
b ed
▁s leep
▁hist ory
▁pro cess
▁s us
▁down load
▁cop y
ch an
i e.
▁Fr om
▁b i
ay ,
ph p
▁sa ve
▁imp ress
ro om
ed i
▁too ,
▁: -
▁so ld
▁tell ing
▁scre en
▁so on
iss ion
▁him self
▁C on
modd ed
▁l ater
▁s end
▁v o
▁right ,
iv id
▁A ust
y ?
ate ,
▁br ows
oh n
ent ,
▁cor por
▁" The
▁O K
▁cit iz
▁g ives
▁pay ing
▁T ry
▁consid ered
▁coll ege
▁A fter
▁r ich
▁Wind ows
▁somet imes
-- --
▁show s
▁D own
▁L inux
▁what ?
ust om
▁R uss
if ied
▁s we
▁sh are
▁P r
n ect
el t
is .
▁illeg al
▁bett er.
▁state ment
/ m
▁mar ri
/ d
▁l os
▁Any one
▁people ,
▁s qu
▁a verage
g en
ill y
▁Let 's
as c
▁cre dit
a ?
▁k ick
ag e,
▁an al
ant ly
ir th
ic ed
▁cle an
▁N e
ia .
▁charac ter
▁eng ine
▁inv est
▁o il
▁n ut
▁Th ese
c ent
ain s
ud e,
▁do ct
▁pie ce
▁P C
▁p ort
▁A d
▁o per
▁How ever,
▁G e
▁m ot
itt y
u el
▁he art
▁W TF
s. com/
▁we ap
ri ll
iz ing
▁complet e
▁s arc
▁right s
▁p ack
un n
▁st ri
▁law s
▁r ad
▁spe cial
▁w all
▁M us
▁kind a
▁say ,
2 .
▁t ouch
▁W H
▁f oot
V E
▁fut ure
▁loc al
an c
▁reg ard
▁said ,
▁U K
ub e
. S.
▁athe ist
og raph
▁way ,
▁ag e
▁major ity
▁us er
▁g oogle
/ 200
g u
con t
▁there ,
h ?
▁bl og
ir m
id e.
is k
▁ins ur
1 9
ord ing
▁n at
V ER
▁a f
us es
▁something .
▁need ed
▁world .
▁ev ent
▁lo se
c le
▁ben ef
▁th ous
L E
▁I N
▁st ep
▁rem ind
or y.
▁3 .
▁in .
on se
▁bl ood
▁su ff
ally ,
w ord
ru ct
us .
W h
▁reg ular
▁av ail
▁sp ace
▁pre ss
▁te ac
OO OO
p ar
▁c amer
▁I nt
▁o pt
▁s um
▁ob ject
▁F ire
▁O S
▁mone y.
▁d ad
▁sc en
▁us es
in ation
▁m ine
▁ext ra
in y
▁d on
▁sub ject
ak es
▁norm al
▁are .
▁" b
▁l iter
▁down .
▁G reat
▁will ing
▁inform ation
▁Wh ile
g est
▁with in
▁in de
▁gr ow
1 .
▁to ol
m p
ou ble
1 6
▁re search
▁inf l
▁cap ital
▁b and
▁think s
j ust
ac c
▁st ar
▁Is n't
▁ins ide
z z
t .
▁be com
ou s,
▁tr ust
ar ily
▁ind ust
▁kill ing
▁for ce
res ent
▁rac ist
er ic
sy ch
2 5
▁co ver
▁" p
▁pro ject
▁comp et
▁en c
y le
▁one ,
▁man ,
▁fe ature
▁P re
▁compan ies
as p
▁rel ation
en g
b it
1 3
▁mean ing
▁not ,
▁1 8
▁much .
▁count ries
▁av oid
▁problem s
▁Per haps
▁ u
▁te am
i et
▁Dem ocr
▁go ld
▁that s
z e
▁milit ary
em s
▁turn ed
▁4 0
fic ult
im ages
▁bl ock
▁f our
▁situ ation
g n
/ 11
▁dou che
it es
▁resp onse
og n
Th is
▁g one
▁wor ry
▁lot s
id =
▁fre edom
▁cont ext
▁Ex cept
▁F irst
▁t end
▁fuck ed
o ke
m b
▁ro ad
it e.
▁L e
y th
▁point s
▁Y es.
▁so .
▁were n't
▁c ustom
▁em ail
I I
▁thr ow
▁feel ing
▁met h
▁J apan
▁out ,
bl og
O P
▁surpr ised
▁up vote
▁t re
▁wr iting
s )
at ed.
▁dif ficult
▁f ake
▁" d
▁spe ech
▁cont in
▁b ag
as k
▁all ,
▁then .
▁amaz ing
▁f ear
▁bad .
t a
ib ility
▁S ounds
m ,
▁doll ar
▁no body
▁" m
▁spe ed
▁lo ad
g oogle
ur y
▁sp ent
▁con nect
▁dest ro
/ p
▁j ump
ren ch
▁d ude
ure d
▁en er
▁b oo
o e
▁uni vers
ce ll
ive ly
▁con vers
▁p ow
an ,
▁" M
b um
▁tr ack
▁dec ided
iz z
ivid ual
et h
▁qu ot
▁( wh
▁most ly
▁cre ate
▁h ang
▁interest ed
▁acc ident
r om
+ +
▁any thing.
A L
▁App le
re ci
▁more .
▁US A
▁vot ing
▁T O
▁cand id
▁s at
▁pro p
▁re comm
▁N ever
1 8
or ,
▁S ince
▁up vot
▁gr and
% 2
▁forg ot
▁th reat
▁ter rible
▁im age
▁ac ross
▁c atch
▁pr oof
▁li ked
▁eas ier
▁al one
▁ch oose
ah ,
an a
▁f ur
▁miss ed
▁sw itch
cl us
▁H ell
▁R em
▁P res
1 4
▁problem .
▁J ohn
▁ear th
▁cons erv
▁anyway .
▁acc ess
le ar
▁b orn
▁priv ate
▁other w
▁about .
▁" h
▁con cept
▁thing s.
er o
▁be aut
▁" C
it ter
re w
▁eas ily
o on
▁bab y
an y
▁c ook
▁pr ice
](http:// imgur.com/
▁Here 's
v es.
▁prof ess
▁m outh
▁polit ic
▁mur der
▁disag ree
▁re ce
▁wr ote
▁e ating
▁C al
d om
▁h er.
f uck
▁ret urn
▁sub s
▁miss ing
▁ro ll
▁" B
▁att ract
A Y
▁" D
▁pre t
▁ep is
in ist
und red
ful .
▁f ill
▁S ee
▁re act
▁* s
▁high er
▁we ar
▁dat a
▁cho ice
▁car ry
▁fun ction
▁funn y.
as s.
s on
▁sh op
7 0
▁sec ret
▁dr unk
▁karm a
3 3
▁b irth
com p
r ation
▁G erman
t ain
▁defin ition
▁C ould
▁acc ur
▁not ice
▁coll ect
▁ch urch
t f
▁m ad
▁Un less
▁F ox
▁M icrosoft
▁f a
i ous.
▁f ather
ic les
9 0
▁H mm
▁so ,
▁fem ale
▁comment .
ur ity
▁down voted
ar b
▁G l
▁l ate
an ces
▁put ting
▁com b
▁f ell
al ,
▁post ing
▁am eric
▁In ternet
i od
▁p aper
b ack
l am
ci ent
▁l ad
se c
▁pos ition
▁ha h
r ap
▁ind ividual
▁it !
▁im pl
est in
▁gr ad
▁h yp
▁has n't
▁an g
▁d rop
is c
ion s.
ar th
he m
▁course ,
▁Really ?
▁add ress
▁H A
▁st ates
▁do c
ra id
▁" c
▁relation ship
▁de ep
om en
▁back .
a ur
▁refere nce
▁c ell
▁perf orm
ik ipedia
er c
▁Mus lim
▁th ird
▁We 're
▁hor rible
▁f ing
du ct
a ign
▁pen is
v ir
ent ial
▁gener ally
▁some body
ph ot
▁b ur
- in
if ul
▁g as
at er.
▁ide a.
▁att ention
▁w al
▁te ach
▁f ed
pos s
i qu
▁b an
▁S T
u es
▁gr ound
▁compl ain
▁ste al
ow .
▁m ill
▁did .
▁aw are
▁Some one
▁poss ibly
▁o dd
in e,
▁pro ve
▁val ue
▁AN D
▁sm ell
r r
▁insur ance
▁c ry
- C
▁T e
il i
▁Ex act
▁T oo
ver .
x ual
q =
▁f elt
▁fact ,
▁n umb
▁f ile
et ic
▁W ill
▁: D
▁smo ke
▁us ers
▁spec ific
▁re pe
▁ est
▁m orn
▁post s
▁ro b
▁po ll
▁sh ut
▁app arently
▁Not hing
ak ed
▁agre e.
▁a ud
▁inc red
in ing
or rect
▁gam e.
gr ound
A C
▁h y
▁h undred
▁sl ight
▁quest ion.
ol es
cri pt
oh ol
▁bl ame
1 7
▁suc cess
▁on ,
▁: P
▁some how
▁v ir
▁creat ed
▁" N
S S
▁li ves
r ay
▁A gre
▁prov ide
UU UU
▁v ag
▁d anger
▁y es.
▁avail able
▁per haps
U T
▁N ice
▁scre w
▁He y,
al d
▁d om
▁ ver
con s
in c
rop ri
▁" w
b ox
▁soci ety
▁fin ish
▁c od
▁be .
▁wait ing
igh b
▁t ab
▁hand s
▁tr ave
is e.
▁learn ed
ab ility
rup t
▁c ity
ia ,
▁v ol
▁qu ality
▁o ption
us ,
k .
c ohol
▁M S
▁buy ing
▁pl enty
▁St ill
ou l
▁to wn
3 .
▁ma le
▁no .
▁He y
▁sens e.
▁tr ain
▁S H
▁f ol
▁d ig
▁" O
/ h
▁100 %
▁app reci
▁Aust ral
▁be er
ent ed
▁b omb
I G
▁resp ond
▁[ H
▁c orn
▁" the
▁plac e.
/ f
▁d raw
▁9 0
▁cons um
▁s ize
▁v ict
▁again ,
▁bl ow
▁Sorry ,
▁( s
▁picture s
▁n or
os p
▁fl o
led ge
et ,
▁watch ed
▁ey es
▁f ant
▁sk ill
▁Ch in
ure s
▁conc ern
er 's
▁Pro bably
▁af raid
▁U .S.
▁camp aign
en ,
ad d
▁stop ped
▁cr ack
▁doll ars
os h
▁S up
▁do ,
▁S ame
▁C ong
ip s
▁ridicul ous
▁h ous
▁tr ad
pp ed
▁we aring
* ,
▁aff ord
▁webs ite
▁Canad a
ers ?
4 .
a ud
▁ ident
▁ne ighb
▁qu ote
▁S w
▁ ur
▁kid d
in n
▁tot al
.. ...
▁al tern
▁l ap
▁ne arly
▁ey e
▁pop ulation
▁year .
u dd
▁E n
t s
▁co ld
▁1 6
▁H oly
▁rep resent
▁bullsh it
app y
▁c e
▁sa f
▁b other
▁Every one
▁H ah
▁val id
▁p sych
▁cont ent
▁recomm end
2 2
▁O P
▁d ream
I L
▁any where
▁Pres ident
▁aut om
lev ant
ra ft
▁on line
st r
▁L OL
p ing
▁ap art
▁sex ual
▁gu y.
s k
▁dec ent
▁fin ally
▁f ault
▁let 's
) ?
▁W ar
▁us .
- g
▁now ?
▁2 5
▁was te
▁f ive
▁ins ult
▁refer ring
▁ob s
▁rec ogn
rib ut
▁li bert
▁not iced
▁up d
▁Sh ould
▁d ro
▁tr ouble
i est
▁li ved
▁j ail
▁dou ble
▁fe ed
▁gr amm
▁C ar
▁H as
are ly
▁f it
▁St e
uc lear
p ic
▁r isk
▁U s
un ny
ol it
▁co ff
▁sup pose
▁ir on
▁d am
▁doc ument
d ered
id ing
HA HA
s _
▁co ck
▁re leas
▁f ield
▁"W h
▁Ir an
▁exp ress
▁joke .
▁i P
n ce.
▁chang ed
▁She 's
▁anim al
▁" t
▁cou n
▁serv ice
or ies
▁use ful
▁dri ving
O D
▁Look s
▁stor ies
▁ ut
▁imm edi
▁Serious ly,
▁ener gy
▁do or
r am
▁meth od
F W
ca re
▁det ail
▁they 'll
▁l ay
▁R ead
▁M ar
if ically
▁p ed
o v
▁J av
▁O N
▁re v
ir l
▁cop s
poss ible
▁off ice
▁imp ro
ud e.
▁bott om
al se
b ers
l es.
▁h at
▁commun ity
4 5
▁h arm
▁&gt; A
R R
ay .
?? ?
▁rep ublic
▁down vote
▁f ool
T H
▁ch rist
▁mov ies
▁t ort
▁" F
▁per iod
▁me as
▁N O
▁sent ence
▁ `
▁adm it
▁d ied
re g
▁c ross
vir on
▁se m
▁enough .
▁fair ly
▁C ons
▁eff ort
▁tr ick
▁pr im
▁got ten
ac e.
ist er
▁book s
▁start ing
▁[ I
▁entire ly
▁to wards
▁assh ole
▁wee ks
▁sur v
iv al
▁A h,
/ b
a _
▁mach ine
HH HH
▁h ost
▁ !
a !
▁pre d
▁e arly
▁Republic an
- up
▁beh av
▁p ush
▁d iv
▁tru ly
▁quest ions
▁t en
▁d ark
▁pr int
▁sol ution
▁thing ,
j u
▁[ S
▁contin ue
▁el se.
▁t on
K E
▁8 0
▁build ing
▁I M
▁with .
▁gr aph
b ag
▁mom ent
in ,
u ct
▁extrem ely
or ge
A .
▁Brit ish
▁it ...
3 5
▁for .
h ood
▁l ic
▁ca ught
▁l ower
y ond
▁rep ly
▁point ,
▁ru le
e al
il os
▁K e
▁ad vert
▁in n
▁t ar
▁n ational
u e.
▁w arm
▁TH AT
▁Pal estin
▁fa ith
ra v
▁ab ort
▁A w
▁T ex
▁M on
r im
▁who 's
▁dis app
m .
▁p ir
able ,
/c 0
ob al
▁pr in
our n
o -
▁St op
i ,
▁Af ric
▁t em
▁mist ake
am ing
ive ,
▁pur pose
▁bu ilt
m ark
▁&gt; The
▁S im
▁we ight
▁moder n
▁al cohol
o /
▁t ick
▁rec ent
ple ment
▁count ry.
▁crim inal
ard .
▁plac es
▁p ers
▁ph r
am es
▁them ?
▁V ery
▁s itting
▁me at
▁f aster
▁the ory
the _
in f
▁" G
▁A h
▁perfect ly
▁Up voted
▁he av
ter .
▁mult ip
at ives
▁qu al
▁fur ther
▁cult ure
b el
▁nat ural
t w
▁destro y
▁him ,
▁ser ver
▁rap e
▁Un ited
▁min or
▁person ally
▁B ill
▁year s,
▁exp ensive
▁mention ed
▁real ized
▁stupid .
▁tax es
▁cont ract
▁n one
▁s un
▁" P
_ of
o il
▁lo ck
▁ab ility
er d
▁b ann
ol f
ism ,
▁stuff .
▁mess age
B C
▁us ern
▁ar rest
u it
et t
▁stre et
▁rec ently
if f
▁app lic
▁Y ep
▁sh irt
▁me ?
▁s and
I M
▁rel ated
s l
▁c ow
▁up on
▁S outh
google .com/
▁ 's
▁m ix
▁are a
▁al though
▁day ,
▁yourself .
▁S pe
▁b ase
php ?
▁vo ice
▁sign ific
▁br other
en c
▁issu es
▁A M
▁e le
▁mod el
▁teac her
▁in tern
ater ial
▁cr ime
▁job .
▁current ly
▁beaut iful
a u
▁disag re
▁yet .
▁arg u
▁Un fortun
▁reason s
les s.
▁dep ress
D .
▁ad ult
▁cour t
▁dec ide
T W
▁m ath
▁( the
▁but t
▁sh itty
at ically
our ce
m on
▁p unch
ic ient
ci ence
L Y
▁you !
ur s
▁tim es.
▁wind ow
▁arg ue
▁know ing
▁ex ec
S T
▁man ag
▁system .
▁Cl int
N N
▁Al though
iv ed
▁p ub
aa aa
▁S m
▁O ther
▁like ,
▁n ation
- st
▁said .
▁L i
▁H ill
▁then ,
▁prev ent
▁bl ind
ur d
▁appe ar
▁app l
▁en viron
▁ign ore
▁ever .
▁lap top
t ime
▁work ,
▁wrong ,
7 5
▁away .
▁day s.
▁shit ,
▁H it
▁col or
p ng
▁phot o
ind ex
▁a head
▁al bum
▁de l
o es
▁comp ared
▁self -
ist ,
▁honest ly
ony m
▁Can 't
▁Y e
▁tru e,
▁p ath
▁y ell
▁mo ving
▁neg ative
▁pr ison
un e
▁cont r
g es
▁fore ign
▁we 'll
i ant
▁f ish
▁am ong
as ,
▁N op
▁* w
▁consid ering
er k
\ *
▁ke pt
▁smo king
a i
▁/ r/
▁bu dd
▁crit ic
▁ap olog
▁liber al
_of _
▁em b
if orn
▁programm ing
▁im possible
▁p et
▁aff ect
▁tast e
▁B et
▁before .
ot .
it or
ance ,
▁C ol
▁sa fe
id er
▁cons pir
▁c y
▁e th
▁Jew s
▁cre ep
▁" g
▁j ew
▁" T
2 4
▁char ge
y ear
en ces
▁em ot
▁be yond
ro du
▁Canad ian
ent ially
en cy
▁se par
▁comp ar
▁T ake
▁foll owing
ep end
▁they 've
re ly
▁gl ass
▁N or
▁re ach
▁Fire fox
▁com mer
av es
▁n ature
▁ ess
▁we ak
▁t ired
ol ic
s. "
▁bac on
▁article .
▁numb ers
▁how ever
end er
▁de li
▁br ought
c d
▁s on
▁med ical
▁Ar ab
▁stor y.
▁6 0
▁A b
S FW
▁for ward
... "
▁b uck
▁act ion
▁G en
▁can c
▁" l
h ip
▁c art
▁this :
f riend
▁E arth
▁Wait ,
▁spe aking
▁b ast
yth on
's .
un der
▁good ,
9 .
▁You 've
▁pun ish
▁really .
E .
▁r ate
▁p an
t ed
▁m aterial
at ory
▁p ure
or rent
f ace
▁Does n't
v ide
▁for ced
ann a
g e.
▁curi ous
7 .
▁lo ved
▁con dit
▁log ic
8 6
▁anymore .
▁h ar
▁ignor ant
v al
pl es
ari ju
▁:- )
ilos oph
▁des erve
▁ex am
▁Bl ack
▁1 4
▁vict im
▁big ger
▁b ed
% 20
▁D igg
- sh
▁think .
▁multip le
▁ ..
▁up voted
is p
▁as s.
▁c ash
▁sk in
▁9 /11
it ation
ex ic
▁hop ing
▁n uclear
▁T ell
▁N az
ment ,
... I
▁invol ved
▁ ug
▁term s
▁N Y
▁cas e,
o k
▁way s
▁cra z
▁D r
▁otherw ise
▁got ta
▁P S
8 /
g .
ose xual
▁(wh ich
▁f oc
▁ha ck
is hing
est .
g ust
ci ous
▁to m
▁r an
.html )
▁link s
▁ag o,
▁then ?
▁b od
▁nam e.
▁m ac
▁do es.
▁mor al
▁1 1
▁st uck
▁part s
▁f alse
▁b illion
▁li br
app ed
A P
▁fl ash
unt u
▁sh ock
▁gun s
▁respons ible
▁p ic
▁bas ic
▁sarc asm
▁li kes
▁big gest
▁r ace
▁sus pect
▁econom y
▁sh all
▁every where
ac he
▁d one.
▁app ropri
c an
▁App arently
▁im plement
▁direct ly
S t
▁stud ent
a -
im ent
▁St ar
b ing
A D
ow ,
re al
▁1 3
▁know ledge
▁reddit ors
ie ve
▁se ason
▁On ce
▁car s
▁real ity
▁requ ired
h am
▁M r.
▁disapp oint
▁per cent
cell ent
▁W orld
▁E s
▁[ A
▁Ch ina
e k
_ s
ate g
att le
as ing
I LL
▁bl ue
▁sec urity
▁st yle
▁( in
▁nam ed
I R
▁cost s
▁sp ort
▁dem and
▁de cl
▁they 'd
▁today .
▁Se ems
▁tar get
ag es.
▁Ob v
▁d ate
▁h ook
▁figure d
▁de bt
6 4
▁mind .
▁econom ic
st ood
ation s.
▁v ari
f act
▁B ig
▁rul es
▁indust ry
▁cont inu
▁not e
▁in ,
▁drink ing
▁d igg
▁des k
▁mov ie.
▁l ines
▁internet .
▁m id
▁circ um
▁any body
b and
o le.
▁Wow .
▁H am
ort un
▁pres ent
▁ev olution
d own
▁bro ken
▁spec ifically
▁post .
il es
let e
▁includ ing
▁tw ice
qu e
▁da ught
ic ated
▁inn oc
▁sc ri
3 4
▁reason .
▁act iv
▁O F
▁Pal in
pe ll
t le
▁prof it
. c
& lt;
▁D ude,
i vers
▁A T
y r
▁myself .
▁F re
▁d ress
at es.
▁expl an
▁leg it
p et
ay s
TF Y
▁cool .
▁t ip
at ors
ne y
▁M exic
▁Somet imes
▁pr on
▁hand le
▁reddit ,
C H
▁sp read
▁m atch
▁commer cial
▁bro ke
▁Int erest
▁hum ans
▁pur ch
▁http://www. reddit.com/r/
▁scri pt
▁n on
▁D ep
▁really ,
▁liter ally
▁old er
▁wonder ing
ist s.
▁des p
l ig
s et
▁sp am
▁Is lam
▁ent ertain
▁" L
▁but ton
▁r ound
▁discuss ion
ir ty
▁assum ing
a el
▁Ok ,
ch ool
re en
▁er ror
ie f
▁ 't
▁st ock
8 8
▁ide as
▁4 chan
▁down mod
▁M ich
▁net work
▁slight ly
▁let ter
/ w
▁j ack
▁C ome
is es
▁ser ies
▁first .
it ion.
or ry.
e el
▁Pre tty
▁I E
I ON
▁event ually
▁sp ending
▁we alth
ed y
es tern
▁Reddit .
▁li e
t 's
▁thous ands
▁second s
▁every body
▁there ?
▁head line
▁se lect
▁around .
C h
▁re du
▁m ent
st itution
▁prot est
▁incl ude
um e
▁equ al
3 2
w ith
ate ly,
olog ical
▁happ en.
▁we l
▁cr ow
▁D ef
▁doct or
▁rel ative
▁dis gust
▁gre en
▁mem e
e ff
i let
▁Cal iforn
3 6
as y
▁Republic ans
▁coun ter
▁acc ording
▁offic ial
g ree
▁r ub
▁s ix
al t
▁bu g
9 5
▁Ser iously
' ,
▁F rench
▁un s
▁s il
it ut
▁l oud
▁t ag
g ar
if i
▁school .
_ p
▁intellig ent
▁appreci ate
ann el
▁retard ed
7 6
ri f
▁un f
et er
▁Did n't
▁repl ac
▁F ed
is e,
R ed
▁keep s
▁sup por
rel ated
▁find ing
▁N orth
im um
ro s
in st
k y
▁prop ag
▁com ic
▁Israel i
de f
▁J ack
▁back ground
▁Th ink
▁adv ice
- to
▁* h
▁point ing
▁su dd
or row
▁drug s
▁feel s
i pe
ically ,
▁Christ ians
▁Jew ish
▁A LL
▁show ing
net /
1 /
▁suck s
▁incred ibly
▁sit es
▁soci et
▁uni verse
g l
▁Why ?
▁comp lex
r d
l in
200 9
▁ball s
m a
AAAA AAAA
▁Com p
▁phys ical
▁mo ved
▁re view
new s/
▁subm ission
▁des er
▁Es pecially
▁be c
▁E v
▁add ed
▁fed eral
▁wal king
▁te en
▁go .
▁seem ed
▁Be ing
▁P art
p en
▁sub st
▁w arn
▁camer a
▁say .
▁conserv ative
w ell
▁don't .
▁B est
▁dep ends
ourn al
▁old .
▁m ap
▁trave l
▁there fore
▁P erson
▁F TFY
▁trans l
▁p uss
I A
▁high ly
▁hold ing
▁n erd
▁lim it
p .
▁key board
se qu
▁ SE
ict ed
▁b on
▁ne ither
▁Chin ese
▁mill ions
▁T ru
▁understand ing
▁http:// imgur.com/
? )
▁inter view
▁b le
▁un fortun
▁person .
▁H ope
▁wind ows
g un
▁s pl
▁turn s
▁citiz en
- A
8 4
▁elect ion
▁2 4
- M
▁cr ash
▁was .
▁cl ub
▁reason able
▁mass ive
▁you t
▁S ad
▁" n
i ven
' T
▁mar ried
▁Che ck
r is
▁piss ed
ain ed
▁gi ant
▁es c
▁v ar
▁oppos ite
▁h ol
▁B E
▁mem ber
▁In st
▁sorry ,
▁m ir
M L
m en
▁about ?
▁p ig
▁deb ate
▁sure .
▁min ute
▁great .
7 /
8 .
es ome
▁That s
1 00
cont ent
▁f asc
y our
▁law y
▁ind ic
ous ly
▁US .
ro g
y l
▁benef it
▁E ither
▁coff ee
▁something ?
▁be ar
▁tr aff
▁m ut
▁pe ace
▁exc use
al es
8 5
▁gramm ar
▁iP h
▁Ke ep
▁fin e.
▁marri age
▁U P
▁sudd en
▁New s
▁e gg
ad ing
r ome
▁annoy ing
ed it
ou nce
c ul
▁B u
▁remo ve
so ci
▁Tw o
pp ing
▁r ational
▁fin an
▁No body
▁off er
p ret
▁polic y
▁scient ific
ro c
ast urb
▁St ates
▁[ M
▁in it
▁b ail
▁educ ation
at ,
▁I D
▁Sure ,
▁on to
▁we 've
i ence
▁idiot .
it le
▁H ar
' S
a use
in ate
▁b al
▁conf used
▁swe et
as hing
▁Thank s.
▁health care
c ast
u ke
▁b ud
▁th us
▁dec ision
▁necess arily
▁mem bers
ad es
ar y,
ible .
▁bullsh it.
▁ ~
▁Clint on
▁The ir
▁ph ilosoph
v ed.
▁let s
▁like .
▁to ,
▁pre gn
▁can t
ight .
▁proper ty
▁hist or
▁def end
▁inc ome
▁head .
▁brows er
▁plan et
▁full y
▁" You
b oy
▁G ive
▁to ilet
▁Fuck ing
▁e arn
▁anim als
am s
as es
▁gl obal
▁H er
▁hum or
EE EE
▁end ed
▁people 's
ed u
e es
▁C r
ens e.
ag ing
▁run s
▁becom es
▁ang ry
▁cont roll
▁b ath
in ary
▁C ap
= 1
▁are ,
▁do ?
▁* I
▁weap on
- r
▁med ic
y m
▁how ever,
▁s illy
ic ide
▁start s
ol ute
▁nam es
▁have .
▁epis ode
U R
▁H onest
- the
ar ter
▁y a
▁pos itive
▁job s
ac y.
▁fl u
▁1 7
▁p ap
▁conf us
r ant
▁pl ann
▁f ly
▁s ame.
▁mone y,
▁ca used
▁( not
▁$ 5
as ion
▁Jav a
, "
▁* is
▁bel ong
▁hard ly
▁neighb or
o. uk
▁mem ory
▁Man y
im m
▁la zy
▁ma il
▁polit ics
▁oppos ed
▁athe ists
ific ation
▁prev ious
▁N SFW
▁infl u
▁convers ation
▁sell ing
ines s.
▁over .
▁B oth
▁orig in
▁appe ars
▁cont act
▁A p
▁b ow
ci es
▁m at
▁re lease
▁kn ock
’ s
▁dri ver
n ess.
▁example ,
▁b oot
osh op
▁b reat
le y
▁pl ug
it 's
▁techn ology
9 6
▁app ly
▁propag and
l ine.
dd amn
▁usern ame
▁c ute
▁ ice
▁ta ught
▁Agre ed.
▁thread .
▁crow d
▁art icles
▁i 've
C .
▁tell s
▁down ,
▁dem on
▁immedi ately
▁pers pect
e b
in 't
▁[ C
▁A ss
Th at
▁cas e.
id .
it ude
▁h ide
ack .
▁M ake
▁en em
▁sp ot
!!!! !!!!
▁Ge orge
▁r out
▁M E
▁lif e,
n ces
▁ ult
▁f arm
2 6
▁qu it
p oint
▁vot es
▁con clus
▁p age.
▁viol ence
▁4 .
▁O ff
om an
en ed
oo s
in ct
▁V ist
▁M Y
▁pop ul
b ar
▁t ough
m as
▁E VER
j ob
▁O ur
▁ra ise
▁work s.
ter day
▁Man ,
ar ant
▁keep ing
▁fund am
ar ies
▁fail ed
▁un like
▁sc r
d a
▁too !
▁altern ative
▁C le
▁guess ing
▁conf irm
▁B ar
▁bec ame
um .
▁sh ame
▁design ed
▁U N
▁off ,
▁com fort
▁sh ip
▁we ed
▁A cc
us er
an ced
ari o
▁t iny
am a.
** .
▁fun .
▁pr oud
l m
▁de gree
▁Se cond
▁fight ing
ist an
ag on
▁read y
ve red
▁vis it
▁de lic
/ l
▁adm inist
▁v ia
▁pl at
▁conspir acy
▁TH IS
▁sca red
▁p izz
um m
▁st ere
▁re levant
▁un d
▁b ike
▁agre e,
▁Rem ember
▁S un
▁government .
▁c up
r ong
▁St ep
▁danger ous
▁dis play
ariju ana
▁jud ge
▁guy ,
▁call s
▁pre p
▁fol ks
▁ch all
▁stud y
▁D is
o or
▁prin ci
▁str ange
▁morn ing
▁particular ly
_ d
▁of .
▁he 'd
fe ature
▁Ind e
▁pleas e.
▁stand ing
▁Somet hing
▁bad ,
k n
for ce
▁Japan ese
▁con d
▁ok ay
_ the_
ee ee
▁anything ,
▁result s
▁C ath
▁w anna
▁under stood
ens ion
▁require s
▁fre ak
▁week .
▁cl oth
▁fact s
le ,
▁jo in
▁ ,
▁P ol
▁conv in
▁h osp
um an
▁hard ware
▁z omb
▁y e
R e
▁m ental
▁b ot
▁opp ortun
▁A the
▁bel ow
/ t
oc ol
= =
▁some what
ipp ing
id s
m ail
▁det erm
am .
▁regard less
▁Hit ler
▁actually .
▁reddit or
▁night .
_ c
th .
▁elect ric
▁spell ing
H T
▁W al
▁fix ed
▁vide os
▁b rill
▁P R
P .
- )
▁H E
▁p ill
▁cons ist
▁learn ing
▁cor rupt
▁occ ur
Red dit
▁7 0
▁r h
▁Americ a.
▁subs cri
▁w tf
- n
▁fl ag
▁tr uck
▁def ense
▁on ce.
ain .
a ven
▁What ?
▁fre qu
▁K ore
▁r at
en ing
8 /0
▁N E
e very
ile .
▁sa ke
▁issu e.
se m
__ __
▁who se
▁* d
▁R el
▁h ilar
▁Th ough
▁z ero
ER E
ab or
▁ir re
ick r
▁def ault
▁che m
▁a ddit
n c
ir ing
▁m er
▁t ap
▁log ical
le g
▁m asturb
▁claim s
▁1 )
il ity.
i ly.
ish .
▁hard er
▁l ying
▁requ est
▁b atter
▁mil k
▁link ed
o ?
▁w ood
▁pl us
O .
is ,
i us
▁bo ard
▁nothing .
▁l inux
▁world ,
! ?
▁K ind
▁comm and
▁sa ving
▁environ ment
m s
ap t
▁thous and
▁cour se.
▁rad io
▁down modded
▁pot ential
▁douche bag
▁libert arian
▁he ld
▁b ra
3 7
re h
ili ar
▁comp are
ess ion
w ich
▁R es
▁fe et
▁corpor ate
▁boy friend
ic it
▁h ole
▁An other
▁sir .
* ?
▁power ful
▁Com m
▁You 'll
▁want .
arr ass
▁inde ed
ove red
▁cl ar
_ f
▁citiz ens
▁pass word
u h
▁Wh ite
▁quick ly
▁F OR
▁correct .
▁W ikipedia
▁&gt; S
▁g ee
▁mil es
ant ic
▁S y
sh ot
▁le aving
art icle
▁jo kes
us hing
▁inf in
▁A RE
d b
▁necess ary
▁T ime
▁set ting
▁pro gress
▁expect ing
im es.
P S
▁R EA
▁h us
▁stud ents
▁Bet ter
▁enc our
ian .
▁f ired
▁wait ,
▁gr ab
▁d er
ce ed
▁int ention
9 /
▁Y ork
▁S l
▁incre ase
5 %
▁as soci
▁p ark
▁exec ut
we b
▁hand ,
▁care .
ation ?
5 .
▁H a
▁ce le
▁a ch
▁[H ere
▁suck s.
▁it 'll
▁h ip
0 .
/ or
▁A g
▁subm it
▁D V
_ m
it e,
ru ction
▁equ ival
▁S U
▁Obama 's
▁a in't
▁pl ant
at he
i ers
▁per m
▁accur ate
▁fac e.
▁phr ase
phot os
hh hh
b ur
▁lab el
▁You 'd
il it
9 4
▁P ut
▁too ?
▁use less
▁O ut
▁rest aur
▁dis e
▁ad s
▁al ien
▁L I
▁ind epend
▁FUCK ING
im p
▁ref use
▁Mich ael
▁( A
▁br and
u x
▁But ,
▁vide o.
▁C all
▁[ here
▁enough ,
A LL
▁m ouse
▁anal og
▁had n't
▁[ B
▁*is *
▁se e.
▁ex cellent
) )
▁fre sh
▁hom osexual
▁to w
▁co vered
▁one ?
ipp ed
▁friend .
▁here ?
▁her o
▁ “
▁idiot s
▁weap ons
▁sit e.
▁res our
EN T
▁b es
▁play er
ul ate
▁word .
▁S at
2 /
▁adv oc
- year
6 6
ing "
▁N ext
C T
v ent
▁Ok ay,
▁r ide
▁B el
▁* not
gh an
▁tri p
▁d ude.
▁hear ing
re ally
ure ,
3 /
▁c ig
▁Hill ary
▁yes terday
▁la w.
▁chick en
▁terror ist
▁cle ver
r ug
▁S O
▁appropri ate
an ch
ain ,
▁scen e
▁pick ed
▁w ire
r at
▁Exact ly.
▁de gre
▁comment s.
▁possible .
▁candid ate
▁every thing.
▁che ese
▁L ast
▁m aster
▁w ild
▁const itution
▁expect ed
▁adv ant
▁not ?
▁l at
uc in
one y
▁chang es
▁ins an
com pl
▁innoc ent
▁yet ,
z en
S D
▁lo b
▁d ump
▁funn y,
il ty
▁cap t
ay ing
st ream
▁Be ck
w ood
▁g ift
app ing
ear s
&amp; s
in o
▁begin ning
▁YOU R
2 ,
l ier
▁v ast
▁str ang
nd er
▁pl ain
b untu
▁when ever
▁shoot ing
▁E ver
▁fl aw
▁coll eg
id ge
▁W or
▁var ious
▁other .
▁sex .
▁B ible
_ h
▁inter pret
R L
▁pull ed
▁book .
▁for mer
▁produ ce
w in
▁w ide
▁val u
▁bro ad
c .
up .
▁themsel ves.
▁( as
▁top ic
▁question ,
th ink
▁yout ube
▁luck y
▁link .
r ict
▁det ect
▁C o
▁show ed
▁remind s
res s.
▁other s.
▁appro ach
▁up ?
▁becom ing
▁pr ices
us ion
▁c ast
▁down modd
▁iPh one
up p
T A
▁re nt
▁C ++
▁d in
al o
▁pre m
▁n om
▁stere ot
▁W ay
▁w ing
re ak
is l
▁me rely
▁D a
▁typ es
▁pret end
▁b ible
▁W atch
▁act ing
here d
▁[ This
▁Am az
▁"I 'm
▁g e
2 7
▁repl ace
▁americ an
l t
▁great est
l ock
▁ ....
▁po ck
▁act ions
▁argu ing
▁rec all
▁thr owing
▁impro ve
▁gu ess.
en e
▁O M
▁2 000
▁Would n't
▁listen ing
---- ----
R I
▁lic ense
▁Tex as
oc al
▁H igh
▁" E
▁Yeah .
ed "
▁signific ant
▁f uel
▁c ens
▁part .
▁laugh ing
▁s oul
▁Russ ia
s :
ug g
_ b
▁god ,
▁God ,
▁something ,
▁small er
▁effect ive
R A
ac es
ag g
ab lish
U N
▁is ?
▁ve get
▁tom orrow
ch ange
r ated
▁thing s,
▁h ome.
▁lar ger
▁lad y
▁intell ect
in ter
▁can .
▁that ...
▁wom en.
▁wr it
ally .
▁here 's
▁f inal
▁sc ore
▁care s
▁react ion
▁emb arrass
▁I P
▁matter .
▁int rodu
▁desp ite
▁aw ful
▁thank s.
▁relig ion.
▁v ac
▁met al
N 'T
h old
▁f et
- of
▁C ont
▁exist ence
R M
▁r are
▁fil es
▁* **
▁help s
▁fre e.
▁end .
▁&gt; "
▁h un
▁b oss
m ...
▁reg ist
▁c red
▁meas ure
el .
iz es
here nt
▁he 'll
▁C D
▁B as
▁cas es
▁p ics
▁t ank
▁autom atically
▁fell ow
▁plat form
▁gre w
▁&gt; H
▁bre aking
▁much ,
▁con dom
▁ug ly
▁" R
▁descri be
on ald
▁behav ior
▁R eg
▁la unch
▁war .
8 7
9 7
or ing
▁hus band
▁S cient
▁finan cial
▁gu arant
▁up gr
▁lot .
ian s.
uu uu
▁; -)
▁desk top
▁Now ,
▁da ily
- old
up load
▁interest ing.
▁ar ch
er ry
▁inc orrect
n n
▁W W
L D
il ing
▁argument .
▁OK ,
- S
1 ,
h ib
▁n ons
▁0 .
▁ve h
gr amm
OM E
▁wel come
▁check ed
▁sand wich
▁P ost
▁for um
v i
idd en
▁Democr ats
r s
▁Thank s,
a ught
▁pass ed
in ated
▁people ?
▁sa ved
▁super ior
▁s en
▁did ,
y y
▁hundred s
▁W o
▁W est
▁F ree
▁no vel
▁H aving
▁lo ves
▁subm iss
▁pur pos
sh it
ion ?
u z
▁f lying
e gr
▁se qu
▁L ove
▁str uct
▁e h?
? q=
as e.
▁sw ear
▁mean ?
che ck
fere nce
T ER
▁article ,
▁[ D
▁turn ing
▁fair ,
▁comment ,
l ook
▁em pt
▁D es
av id
▁G ot
▁v s
▁b at
▁tr ade
▁typ ical
▁langu ages
▁was ,
▁epis od
▁from ?
▁qu e
▁pl astic
it ions
▁j ournal
▁traff ic
▁W el
▁Any way
▁b ird
ph one
▁her ,
▁plan e
▁E d
▁pri or
▁sum m
P G
▁U buntu
▁C ool
▁U se
content /
▁gr ade
▁separ ate
▁show .
cl ud
en ced
p re
▁W E
▁r ing
▁and /or
▁own .
am b
▁crap .
an s.
ain t
▁t ill
▁up mod
▁happen ing
ic a
▁want ing
▁for ,
▁se at
▁man aged
ing ly
▁mo on
ke ll
▁pract ice
i ous,
▁p ee
▁dec is
▁su it
▁someone 's
il ities
▁&gt; Wh
▁gr owing
▁P ython
▁opin ion.
2 3
▁ex erc
▁P e
c o
▁before ,
at ing.
▁H ouse
id ay
▁p ant
k in
▁read .
▁R ock
▁const antly
▁che aper
▁a st
▁I d
▁p ants
ag ine
▁ \
▁subm itted
▁week end
/ 4
▁ )
p ress
▁car .
▁N ah,
▁n aked
▁[ The
▁comput ers
▁she ep
▁sol id
ut s
▁exist .
ed d
▁C or
act ion
▁alread y.
wh y
▁re ven
▁gu ilty
oop s
▁t v
▁fam iliar
▁sh own
G E
▁P H
▁mor on
inf o/
▁w ater.
▁jo king
▁imm ig
w or
▁fundam ental
eng th
I P
▁Sw ed
▁accident ally
il ari
▁los ing
k ward
▁sh o
- a
▁hilar ious
l .
▁lim ited
w ar
▁inf o
us e.
▁di e.
or s.
▁go al
▁support ing
▁[ F
▁al ive
▁dep end
▁jud g
▁dam age
▁re -
▁r ough
▁E r
im b
▁part ies
▁c ake
▁d irty
▁sp ir
▁c ab
▁Palestin ians
▁Ham as
▁put s
▁time ?
▁go ddamn
5 5
ill a
▁Every thing
▁langu age.
▁Af ghan
▁hous e.
▁mot iv
E dit
ac hing
▁bre ast
▁ma x
▁H u
▁O per
▁assh ole.
o om
k a
fl ickr
▁out r
6 .
_ t
▁me chan
C E
▁p ages
ag n
▁mus lim
▁l oss
▁me !
ag er
▁canc er
▁" Y
▁equival ent
▁h on
▁2 )
u ine
▁wor ried
▁game ,
" )
▁... and
ers hip
u fact
▁mean .
▁we 'd
▁s ke
▁m ount
▁v irt
▁b ub
▁" st
▁pre c
Y Y
▁b arely
▁Un ivers
▁dead .
▁own ed
▁ass ault
▁* f
▁Fr ank
▁explan ation
▁C AN
▁[ s
▁elect ed
▁Austral ia
▁s ister
▁im ages
▁ab use
ick s
flickr .com/
/ 3
se e
▁dist urb
▁conf l
▁pro ven
▁itself .
▁se ction
▁ins ane
▁commun ic
feature =
▁v s.
▁job ,
▁br own
ical .
▁al t
h ost
▁year ,
▁ro ot
▁cre ation
- D
▁B ack
▁athe ism
ab out
ah .
▁sy mb
olog y.
ri v
an ish
00 00
▁ref lect
are tt
▁invest ig
y "
▁assum ed
▁Sh ow
▁or d
&amp; feature=
▁A S
▁T re
▁[ N
im e.
el ess
▁chang ing
▁D ear
▁let ting
▁C H
▁who re
▁d ire
▁R E
▁one 's
▁s outh
h ...
▁grad u
▁fr ame
im al
▁con sequ
** *
▁res ist
▁Se c
▁m al
▁p al
▁sol ve
▁comm it
▁gam es.
▁sudden ly
▁end s
/ g
▁t orrent
▁kid s.
▁K ing
▁w ake
▁post er
▁l ame
▁O ld
i j
▁sir ,
▁out ?
▁ra ised
▁H D
▁point ed
▁while .
▁foc us
▁ser ve
▁help .
▁dep art
▁A L
! )
▁c ore
▁ut ter
▁politic ians
▁j u
▁est ablish
▁C S
▁sure ,
▁friend s.
▁instead .
▁th umb
▁fing er
▁heav y
a 's
▁occ up
G B
▁cal cul
▁better ,
▁enjoy ed
w orld
▁mist ak
▁as ide
▁system s
▁argument s
▁word s,
▁kind s
▁* c
▁fav our
ucin ich
▁all ows
op p
▁Acc ording
▁c unt
i h
▁children .
ic ag
or id
▁* m
▁r ain
d f
x y
▁Inst ead
▁ru in
▁subreddit .
ar ah
▁G old
▁Obv iously
▁ear lier
▁5 00
▁profess ional
▁ex ists
▁ent er
▁list .
▁ ^
▁releas ed
▁! =
▁' em
▁tr ash
▁dr ag
▁P ar
go v
▁bath room
▁( m
▁Cong ress
or der
▁cl ip
▁dis s
ic es.
▁n ail
▁O pen
S !
▁leg isl
▁As k
▁intellig ence
P L
▁did nt
▁K n
▁mo b
ep t
▁mar ry
▁A bs
2 9
▁WH AT
ah oo
l s
▁clos er
z .
mp ath
▁g arb
▁ess entially
it ar
▁dog s
▁recogn ize
▁serious ly,
as s,
if e.
▁o m
▁F ace
▁trad ition
▁L ets
▁st ate.
▁Yep ,
▁tort ure
▁Serious ly.
ri es.
▁F in
▁girl .
k cd
y !
▁develop ment
images /
ian ,
jpg )
▁Eng land
▁* that
▁( f
index .
▁b read
▁ch annel
▁remo ved
n s
▁ide a,
n ic
▁stat ist
▁first ,
▁fore ver
9 %
4 7
US T
▁bann ed
▁d ish
▁win .
▁differe nce.
l =
A KE
▁Pl us
▁te ch
at ri
▁se e,
▁m ort
▁group s
▁work ?
▁DV D
▁be ,
▁M et
▁will .
ari ans
ill ing
2 8
c ore
▁guy s.
▁hor se
▁Europe an
▁cele br
on ly
▁belie ves
oun ced
▁Californ ia
I .
an cy
▁fill ed
▁wor se.
- 8
▁help ed
▁su icide
oooo oooo
ic he
▁A nt
ity ?
▁ex clus
▁school ,
▁L aw
▁fl at
▁I ,
us /
▁f ash
▁bud get
▁gener ation
ret ch
▁an arch
▁E m
▁$ 10
es h
▁hard .
▁min imum
▁Vist a
▁situ ation.
▁cap able
▁bit .
g if
▁app arent
▁dro pped
▁hosp ital
▁n ice.
O S
i am
▁$1 00
▁ac compl
▁deser ves
.c o.uk
f ire
▁abort ion
▁for ?
▁c ats
t itle
▁bus y
▁program mer
▁tr ail
▁g rav
em ploy
▁cr appy
▁3 rd
▁cont ribut
▁man ufact
▁it 'd
▁" J
- re
▁end ing
▁w ikipedia
▁la id
▁vir gin
▁D r.
▁Aw esome
▁" you
▁wh eel
▁Ob ama.
▁sup ply
▁G OD
▁h ates
▁sc ary
▁disagre e.
ast .
' ?
▁Im agine
▁Unfortun ately,
▁S ub
ated ,
OOOO OOOO
U L
ar l
▁great ,
▁sal es
▁3 60
▁su gar
▁Nop e,
ter ,
▁B es
▁bott le
▁Re al
▁tick et
▁p ool
ay er
▁different .
at o
ter m
▁*not *
▁him ?
▁just ify
▁mother fuck
▁again ?
▁help ing
▁success ful
ic s/
▁ :/
p ost
▁to ?
▁ca uses
ies ?
▁J ud
▁re b
▁phot os
▁re ject
▁belief s
▁B ad
▁d are
▁bor der
▁p air
▁ad op
▁b ored
▁bast ard
▁T om
▁Hah a,
▁b right
▁back ,
▁t all
A ,
ve re
i er.
▁R ich
arc asm
▁thing ?
rib ute
▁gen uine
▁laugh ed
rib ly
ind s
▁claim ing
▁problem ,
▁truth .
▁creat ing
▁is :
▁democr acy
▁g ang
▁Reddit ,
▁to ler
▁h ilari
▁copy right
▁mag ic
r ound
▁te lev
▁sat is
I V
al ing
9 8
l es,
ate ?
▁d ict
all ow
▁- &gt;
▁suggest ing
▁daught er
- B
u .
▁abs olute
▁li qu
▁B ull
▁best .
▁* you
▁r arely
▁disc overed
z er
▁t our
▁den y
▁main tain
▁in ch
▁M en
▁ver b
▁AN Y
▁H ard
▁proper ly
▁great er
▁viol ent
) :
▁d ying
▁view s
▁point ?
▁S P
▁h oly
▁assh oles
▁[ T
?! ?!
▁[ c
▁techn ically
▁concern ed
▁charac ters
▁t able
▁cho ice.
id es,
op s
AN T
ass es
▁" a
▁S en
p art
or al
▁aw kward
▁ um
▁w ow
▁s orry.
▁that !
bl ock
am ed
▁us e.
her n
▁g ain
▁int ended
▁L O
▁H T
▁B TW
▁j erk
▁f old
▁tim es,
▁intern ational
▁Other w
▁god .
▁t ree
ad ed
_ w
▁school s
▁g ig
ac on
▁pred ict
▁cur ren
▁ir ony
▁n az
▁int egr
▁impress ion
▁m arijuana
▁OM G
▁3 00
▁sp in
im ately
▁bor ing
o ca
▁C are
▁chall en
less ,
ON E
en ey
b on
▁mo ck
▁c ateg
▁90 %
▁X P
FF FF
/ st
▁[ L
j a
▁cont ain
id ence.
▁M o
▁bus iness.
▁pro b
▁n ative
am ent
▁teac hing
▁me ...
▁on es.
▁con vert
em on
▁(I 'm
▁clos ed
▁kid .
mm mm
▁rem ote
▁add ict
in em
▁mean s.
ant ed
▁L a
▁l ine.
ac e,
m art
- ch
▁F F
▁b ang
▁respons ibility
▁up set
▁man age
▁1 000
up ,
▁M a
▁st ab
▁tre nd
▁"Wh at
▁t act
g e,
- and
ant ,
▁bank s
▁sum mer
.... ....
as er
ness ,
▁together .
2009 /0
▁comp reh
▁dire ction
▁&gt; B
▁pow er.
▁d ude,
▁conv ince
▁F unny
ot ic
▁sad .
O RE
um er
▁problem s.
r ont
▁pub lish
▁Thanks !
▁cig arett
p olit
▁Ex pl
▁con ven
▁product s
http:// www.
▁sy mpath
▁O H
g or
▁inv ented
▁amaz ing.
▁EVER Y
▁guy 's
▁mir ror
▁c able
▁answ er.
▁click ed
A K
▁st ation
rem e
ap pe
▁happen ed.
▁T ot
▁def ine
at iv
S ,
▁understand .
▁k iss
▁Mc D
▁country ,
1 )
_ to
▁convin ced
h a
▁ch ose
▁d ry
▁Wh atever
▁sim pl
▁program s
v es,
l iv
▁[ W
▁God .
▁imp act
U n
▁food .
t =
M M
▁re ve
▁eng lish
▁( a
▁L ife
▁demon str
I s
▁tit le.
▁ne ck
▁Americ a,
▁steal ing
▁O ver
_ in
▁U nt
▁legit imate
6 5
▁W omen
ic ial
▁2 1
▁E l
the y
▁C O
b b
▁norm ally
▁bail out
▁rap ed
▁so ck
▁US ,
▁partic ip
▁h ated
▁finish ed
▁des ire
_ a_
▁compl aining
- 0
▁add ing
pro duct
▁abs urd
▁w ont
res p
▁Con stitution
▁experi ence.
im db
m ber
▁eff icient
▁main stream
l a
▁ob sc
rib ution
▁foot ball
▁a im
](http://www. reddit.com/
▁or g
d r
▁is rael
er. com/
▁Be fore
▁d ial
▁s ides
▁l ater.
▁Y et
ic y
▁boo b
▁new s.
! *
4 4
▁K ucinich
▁troll .
▁w it
▁Ind ian
▁real .
▁song s
▁kill s
AT E
▁P ark
▁hell .
▁head s
▁S ch
▁Hell ,
j o
▁p oop
▁n ast
k now
▁s ill
▁inc ident
▁L eg
▁dis m
▁am b
▁chang e.
▁So cial
▁m and
oo g
imdb .com/
es c
ed ic
6 7
o s.
▁s an
▁s ending
▁confl ict
▁month s.
▁circ le
- P
▁( N
▁opportun ity
▁Wel come
ab y
oth ers
▁Muslim s
▁Sup er
ut ch
▁li es
▁mon itor
▁opin ions
▁sh ar
ne cess
IG HT
▁l unch
▁C ent
▁Go vernment
▁ridicul ous.
▁el abor
▁hist ory.
ick .
it ies.
▁se en.
▁symb ol
▁birth day
▁D N
▁effect s
oca ust
▁system ,
▁t ons
a wn
▁in comp
▁word s.
▁serious ly.
▁mus ic.
▁surpr ise
er "
▁Interest ing
▁what ,
▁pizz a
▁r ab
▁d un
▁h ug
▁long .
▁S n
▁form at
▁dis like
▁treat ed
▁i 'd
▁wh y.
u le
▁W ere
▁fl av
▁comp il
▁Tr ue
▁Nop e.
▁hu h?
▁att ach
?? ??
▁n a
I n
▁v acc
l aw
▁h ung
▁h ur
▁st ol
▁attack s
▁J on
▁play s
▁relative ly
▁attract ive
▁ro le
▁st on
op ath
▁us ual
▁accept able
C D
▁craz y.
▁inv ent
▁talk ed
▁bl ah
6 /
/comments/ 9
▁It al
▁us ,
▁follow ed
▁more ,
▁V al
html )
in ating
▁far .
▁Gu ess
▁[ O
▁face book
ve .
▁Unfortun ately
ful ,
y 's
▁exper t
▁your s
▁ar my
▁phot ograph
onym ous
orm on
▁con gress
▁sh ift
▁* S
▁M ark
▁news p
▁condit ion
▁play ers
▁bab ies
▁can n
▁reddit ?
▁h ire
▁* t
end ment
’ t
ap .
▁en force
▁rem ain
▁was h
ri al
▁Cath olic
▁With out
▁G az
▁bl ank
▁al one.
▁in j
. )
▁bas is
ed s
▁l ength
▁won dered
▁hah a
▁ne ut
▁R ub
▁ok ,
▁connect ion
▁brill iant
▁d ating
▁death .
▁as pect
▁&gt; W
▁ob lig
▁myself ,
▁Def in
u zz
- th
▁2 nd
▁accompl ish
ee z
man .
▁e mer
▁d im
▁b ark
▁H el
▁S an
sp ot
▁t att
▁Ch urch
▁n ar
ri ef
▁fol k
▁f ont
s '
▁t ear
▁min e.
ad .
at or.
▁sarc astic
▁why ?
x .
▁P ort
▁guy s,
te xt
▁from .
C C
▁A dd
▁produ ction
▁( h
▁Ye a,
▁( S
" ...
▁plann ing
▁J oe
▁perform ance
in es.
/ P
▁Li bert
▁fact .
▁( d
▁te le
▁50 %
▁she ll
▁sca le
▁s in
▁st ated
▁* A
▁would 've
▁stand ards
▁de leted
▁sk y
▁yeah .
pro f
▁her self
▁$ 2
▁g all
/ S
▁T F
▁ev ol
▁cl ass.
▁retard ed.
▁" he
▁reason ,
▁se ct
IT H
and er
ain e
▁sn ow
ber g
▁reg ul
▁Fl ash
▁M akes
▁T or
▁G U
▁my th
▁st retch
▁extrem e
M A
m ind
▁A P
if ying
▁arm s
- 3
▁flo or
▁D avid
am ,
▁P leas
's ,
E O
▁de al.
▁market ing
do es
▁tem per
W W
UUUU UUUU
▁w ars
▁imp ly
u ce
h ap
▁b ush
▁it em
▁mis le
▁Damn ,
▁C NN
▁un c
p age
▁st ream
▁mon op
▁explain s
▁sy n
il s
▁pro sec
▁ch air
▁$ 3
▁Honest ly,
▁en s
▁benef its
▁Unt il
▁applic ation
▁5 .
▁libr ary
▁upvot es
▁F air
▁de lete
▁he at
▁cool ,
▁const ruct
b /
r ate
▁char ged
p -
uck s
▁Q ue
▁m icro
▁old ,
▁A c
▁Was hing
▁woman .
▁dick .
▁Israel .
▁thought s
▁fam ous
out hern
▁mat hem
▁resour ces
▁( if
G G
/ n
▁person ,
▁U h,
▁kidd ing
▁includ ed
▁republic an
▁advant age
▁W AS
▁app le
▁St ate
▁G irl
▁&gt; M
▁stat us
▁B ob
▁ach ieve
▁stuff ,
tern al
▁bring ing
ag an
▁support s
▁belie ving
▁C P
▁health y
▁sp o
▁hand .
▁Rel ig
▁200 8
▁Tru e,
▁st ole
▁vot e.
▁move ment
▁Right ,
- e
▁so on.
▁thought .
▁ha m
- 4
- cl
▁dev ice
▁A ng
▁W ord
▁fuck .
▁christ ian
em ent.
▁does nt
▁f irm
▁Fl orid
▁joke ,
▁in ?
▁s ac
▁S ay
▁or ange
or y,
i ents
▁say ing.
▁percent age
▁U m,
▁thr own
▁Ch icag
ist s,
▁prov ided
▁Russ ian
ed !
▁Ab out
▁corpor ations
▁( like
am az
▁[ G
sh ow
▁picture .
▁ag gress
▁( b
▁D E
▁O '
▁prom ot
/ C
▁r ot
▁cl ue
▁compar ison
ank s
... but
▁boy s
▁E X
er !
re et
▁S cience
um ing
▁fl ight
_ C
▁minut es.
▁walk ed
▁Te chn
▁p ound
c es.
png )
▁advert is
▁M ine
▁feature s
v iet
▁S arah
k ill
_ S
▁regard ing
y e
ad e.
▁sp oil
▁know ?
▁bull et
▁wh om
ear ch
▁iron ic
v y
▁serv ices
▁prim ary
▁stor y,
▁empt y
ces s.
wh ile
▁kick ed
▁origin ally
▁St r
es b
▁rac ism
▁tast es
▁upd ate
▁fil ter
▁employ ees
▁here :
▁" re
▁cr imes
▁be ll
▁typ ing
▁phot oshop
▁D ude
▁C ount
oc rit
▁d irt
i o.
▁I Q
h ouse
▁fut ure.
▁go v
▁ass ert
er :
▁Ge org
▁chick s
ew art
meric an
▁h its
▁Christ mas
▁cut ting
▁s ide.
▁saf ety
▁leg ally
▁bot hered
ant a
▁propagand a
ab les
▁expl o
▁Or ,
▁scient ists
ud es
▁are as
▁sour ces
▁you ...
it ute
▁inf ect
▁be ating
/ M
/ ).
▁ag end
▁rock et
c at
▁pat tern
▁slow ly
▁ ic
▁M ight
f ect
▁class ic
▁fr ust
IS T
▁equ ally
▁st om
ott en
▁"W e
_ and
▁m en.
- le
▁proper t
▁suppor ters
▁occ asion
cl aim
▁C oll
▁examp le.
▁part y.
▁sold iers
▁pl ot
▁dri ves
on der
al ed
▁really ?
▁con so
▁Down voted
on .com/
▁Naz i
x ic
▁b ust
▁wonder ful
▁Any thing
▁about ,
▁str ing
▁Face book
▁r ates
▁fant astic
▁tr aining
▁qu ant
▁st y
▁stereot yp
▁high est
▁name ,
▁dri vers
▁want ,
l og
▁off ensive
▁our sel
▁n ic
200 8/0
▁Wind ow
▁exam ples
▁suff er
7 7
▁repe ated
▁N ote
▁behav i
be cause
▁j av
▁on ?
k ,
M B
- L
▁sure ly
▁rece ive
▁c ities
▁troll ing
▁par an
▁stra w
▁obs erv
▁&gt; You
▁f ans
▁fire fox
▁1 :
▁gay .
▁And ,
e ven
iz e.
▁no se
▁just ice
▁i 'll
▁gr own
▁cloth es
is on.
▁hilari ous.
▁D an
▁much ?
▁pain t
▁so le
▁N et
▁Hope fully
▁em p
▁and ,
at es,
▁bes ides
▁W in
▁R ob
▁stand s
a ...
▁fail ure
l ink
▁ ing
ast ic.
▁install ed
▁squ are
▁* "
▁D RM
▁e ight
3 ,
▁p ump
▁oper ating
▁ignor ance
ail s
an ing
▁else where
▁const ant
r ary
oll y
i ly,
▁for t
▁gu itar
▁downvot ing
▁ha ll
3 8
▁L ol
et te
cept ion
▁h itting
- 2
ens ive.
▁"I f
▁lead s
ic s,
▁hang ing
▁McD onald
▁fall ing
▁also ,
ro ck
▁G O
▁two .
▁think ,
▁amount s
▁bitch .
ii ii
▁B oy
N T
▁( for
▁Tr ans
l= en
▁author ity
▁sign ed
▁he aven
▁rem ark
▁cent ral
▁day s,
▁develop ed
e in
▁M ust
▁both .
▁br ings
▁U RL
▁W rong
▁but ,
ra z
▁mot or
▁we ather
▁chem ical
l ines
▁d unn
C ,
▁M P
p op
I E
▁We 've
-year -old
▁f ap
▁every day
▁F TW
▁= )
er g
pl ace
_ P
: **
▁at e
▁post ,
▁sur f
as cript
▁co ke
▁w estern
u ous
▁downvot es
▁&gt; N
▁sm ile
▁* b
od ay
▁t ub
▁actually ,
▁stri p
▁state ment.
ist ory
▁U mm
Q L
v est
▁fr aud
ag ger
▁class es
ad em
▁big ot
un es
▁D ay
a us
ro vers
▁D en
▁F A
ent ion.
▁war rant
▁societ y.
▁lar gest
▁re ci
new s.
▁band w
- j
on s.
▁Gu y
▁" in
▁E ast
c 0
W N
ar ,
ww ww
l ist
▁Exact ly
▁M in
▁S C
▁HA VE
omet hing
▁le aves
▁al right
▁ @
ing u
▁programm ers
- F
▁ru ined
ot hing
▁cent er
i ber
▁hy per
- 5
▁bu ff
▁expl os
▁p icking
- out
▁att itude
▁D ead
N ET
▁cod e.
▁elect ron
f m
wh o
▁kn ife
▁aut o
▁r ange
▁Christian ity
▁tri es
- 1
▁un employ
▁let ters
▁once ,
▁c ards
▁yet ?
▁gam ing
▁ {
▁You T
4 /
▁acc ent
▁fact or
▁support ed
▁circum st
▁h ob
n ame
.com/ )
% 3
▁but ter
▁ch ocol
htm )
▁M ad
▁fl ow
▁G OP
ad a
▁ep ic
▁rece ived
▁eith er,
▁M od
▁b attle
amp le
▁thread s
▁skill s
▁answ ers
▁bi as
et ch
ed ing
▁cl ient
▁disc rim
▁surpr ising
▁T er
▁develop ers
▁vag ina
▁crit ical
▁cons cious
▁German y
- T
... ?
▁open ing
5 /
▁j er
ian ce
▁&gt; T
os e.
▁organ ization
▁gen oc
▁I ce
ro id
▁D ark
▁nat ur
▁J im
▁PH P
( )
▁now here
▁up load
▁def ending
▁h o
▁Li ber
m ate
▁g ender
▁hot .
asp x
- R
A B
▁nut s
▁phys ics
at ural
▁M uch
y. com/
▁Gl enn
▁contr ad
ri g
▁deal ing
ri ve
▁H alf
I F
▁t ight
▁mon key
w he
-sh irt
▁rob ot
▁Has kell
/ tt
▁with ,
▁restaur ant
▁win ning
▁offic er
▁univers al
▁exper iment
▁o h,
h l=en
▁* really
▁t ong
or se
... and
▁pay s
▁corn er
LL Y
▁mo dd
▁month .
▁C re
a q
▁un able
▁P L
▁man ip
3 9
▁aud ience
▁M ont
▁2 :
-b ased
p res
▁A ir
il .
▁ref orm
▁* n
▁techn ical
tr l
▁F all
es !
▁back wards
ul s
▁ar row
▁cl ock
aw k
▁intellect ual
▁j unk
ES T
▁W ITH
▁pie ces
▁F ix
y ing.
▁B BC
▁L ink
▁exp and
title /tt
▁un necess
▁B S
▁trans port
▁Wo W
imdb.com/ title/tt
▁assum ption
om ed
\ _
▁sci ence.
st ers
▁else ,
▁damn ed
he lp
▁movie ,
ie ,
M .
▁work ers
▁curi os
▁J er
gor ith
▁press ure
▁g ross
▁WTF ?
ad er
▁N one
▁dat ab
s *
▁temper ature
ash ed
ve y
▁delic ious
▁p upp
▁pr ay
ce l
▁poss ibility
f ield
▁init ial
▁b ound
▁level s
b es
reddit.com/ info/
▁" r
▁cl icking
▁neighbor hood
ous e.
or ial
▁ \*
ct r
▁ele ment
▁belie ved
▁[ R
▁$ 20
▁to ward
F C
▁Da ily
▁So ...
▁fre aking
ay be
▁isn't .
oph ob
▁th rew
▁for ces
▁C orrect
▁terror ists
▁spl it
▁Canad a.
▁p il
▁lat est
▁hyp ocrit
▁par ag
▁exc ited
▁"H e
▁opt im
▁G reen
▁H ad
▁compet ition
com fort
▁s ink
▁ex pos
▁meet ing
n .
e at
▁internet ,
▁St art
▁fing ers
▁check ing
▁h mm
▁S ex
ire s
▁spir it
▁sur round
ac le
▁p ushing
▁uni que
▁What ,
▁hour s.
▁Sure ly
ag ue
▁explain ed
▁doct ors
gg ed
k es.
ur rent
▁treat ment
▁mis under
▁a id
un s
▁f ox
▁fail .
▁bub ble
▁art ist
▁reg ret
▁impl ies
▁custom ers
▁w ow,
▁off end
▁creep y
▁detail s
ri an
** **
8 9
▁un w
▁sol ar
▁ser vers
▁didn't .
▁B o
ol ar
▁suck .
ahah ahah
▁St ewart
▁B en
▁div or
all ed
▁Ch eney
D S
▁pock et
▁techn iqu
▁light s
▁answ ered
▁How ever
h ack.
▁comfort able
▁&gt; D
▁sus pic
▁surv ive
ry pt
▁perspect ive
h and
▁account s
▁live .
▁Israel is
▁Palestin ian
▁least ,
▁U h
▁j esus
▁g ra
p /
ev it
ne ck
▁man 's
al ty
et or
▁L ad
▁pro pos
id th
▁issu es.
▁stupid ,
▁least .
▁burn ing
▁S am
oo o
▁new s,
es is
▁g ent
k er
▁what s
▁satis f
▁kid s,
▁th re
▁be ?
id ering
land .
▁p atch
on ic
▁who ever
▁ri p
a .com/
en omen
yn am
ack ed
▁arrest ed
am ily
cl es
▁mur d
▁includ es
▁this ...
com e.
▁' b
▁l ess.
_ M
▁independ ent
ig er
▁T urn
▁ab st
▁account .
▁sol ut
▁10 %
▁l oop
iz ed.
▁claim ed
▁I ll
c raft
I ,
kn own
▁invol ve
▁Cle arly
in ation.
ct u
▁sport s
&amp; q=
ac ed
▁rel i
▁s le
▁$ 50
▁home less
re p
▁h ipp
▁l esb
▁O R
▁pro st
▁S we
▁descri bed
▁Person ally,
ro ph
▁Afric an
▁We 'll
▁In c
▁te eth
▁carry ing
▁C our
E x
▁B udd
D D
▁gu ilt
▁polic ies
▁awesome ,
▁comput er.
t in
- ass
▁rev olution
ar g
▁W all
▁* sh
▁j eal
▁it :
nt ax
▁Ph ot
ad s
▁( c
▁over all
▁ar r
▁influ ence
▁sc roll
▁Ne ither
▁opt ions
▁he y
▁anyway ,
▁repe at
v in
▁purch ase
▁a ck
▁th in
o 's
se x
▁des per
▁Ar t
▁qu iet
▁dis appe
▁univers ity
▁p eop
▁sh ap
▁200 9
▁stol en
▁tatt oo
ed ly
▁che es
▁mach ines
▁ins ist
▁b ul
▁have ,
▁c ous
▁opin ion,
- like
▁be er.
b ow
-C -C
▁subs id
▁SH IT
▁sh out
os aur
▁fin e,
▁tr oops
▁home work
▁Where 's
▁every one.
&amp;feature= related
▁he y,
▁Yep .
e lect
▁Bu y
est ion
▁in herent
▁* any
▁garb age
b od
▁Anyway ,
▁know ...
▁m ile
▁ch art
▁sur ger
▁plac e,
▁' f
▁girl ,
▁M iss
▁R and
▁4 5
ri p
▁f art
▁explain ing
▁all ?
pr int
▁right s.
▁anyway ?
▁circum c
▁buck s
blog spot
▁g roc
▁opp ress
el f
▁Al most
T .
▁lol .
▁cr is
▁Still ,
▁n orth
▁dep ending
▁str ict
▁Se e,
▁[ the
▁set tle
▁veh icle
▁Cong rat
ing !
▁L ots
▁comm itted
▁&gt; O
r ain
▁Pl us,
▁scr atch
▁f if
▁off ice.
ww w
▁se es
▁R AM
▁president .
▁candid ates
▁k itch
▁m ic
▁today ,
▁is ...
▁Gl ad
▁l ed
iz ation.
▁un b
▁refere nce.
▁say ing,
r an
▁mag az
▁car ,
▁A C
▁disappoint ed
▁as ham
▁U nder
▁administ ration
f il
ast e
or ter
▁yourself ,
▁Who 's
▁" we
▁* p
▁appl ies
al king
▁own er
▁d ut
▁wrong ?
▁fash ion
ism ?
▁around ,
al m
▁S ur
2 )
▁young er
i _
▁D ar
▁Dep ends
▁un it
▁ins ight
ly ?
▁state ments
▁pl ans
▁spell ed
▁Ch rome
▁p ix
▁republic ans
a very
▁irre levant
▁but ...
,000 ,000
▁P ak
ub s
▁= =
▁I R
▁compan y.
▁T R
▁puss y
▁sense ,
▁t ape
es ter
▁conclus ion
▁believe .
▁spe cies
ost ic
images hack.
▁C IA
▁ca using
▁L A
▁er r
▁what so
▁f ro
▁n u
▁int ent
▁C OM
▁Pro f
are .
▁pull ing
▁L o
▁out s
▁pregn ant
at ic.
▁la wn
▁ide al
▁accept ed
▁M r
▁stre ng
▁*really *
▁except ion
lev ant.
▁Ind ia
▁*that *
▁like ?
ap se
▁ch ances
bel ie
▁back ward
▁typ ically
▁tal ks
▁mix ed
h en
▁a x
olut ion.
▁government ,
▁G iven
▁L ond
▁su e
▁$ 4
▁cre am
iction ary.
▁S il
?! ?
▁crim e.
▁w ave
an cing
▁G ET
ang el
s -
▁st aff
▁L ear
▁go ,
▁sign s
urb an
▁ped oph
▁* The
▁rac ist.
▁ha bit
▁read s
▁conf using
▁c ert
est ic
▁dis ab
e en
▁b tw
▁I .
▁sh ape
▁Pr ot
▁parag raph
▁mag n
v ing.
/ 10
▁engine er
▁as ks
om s
▁B us
▁T im
▁fam ily.
! **
ire .
▁i T
▁care er
▁st im
▁per man
▁( at
▁Reddit ors
▁ac id
▁St upid
/200 9
▁anal ys
▁philosoph y
▁d ed
▁l oose
ab s
▁open ed
f ast
▁dist ract
c ott
ion ist
▁6 4
▁C EO
▁e ast
▁al i
▁Us ually
he alth
▁descri ption
▁ac qu
est ,
flickr.com/ photos
oo b
▁minor ity
▁world 's
▁pass ing
b e.
if ies
▁ex change
▁worry ,
O X
▁war ,
k en.
d ot
▁co inc
▁pir ate
▁ch ip
▁eas y.
d oc
▁video ,
il ight
▁jo int
in form
▁So viet
- O
▁com ed
▁HT ML
▁# 1
▁conso le
▁ta il
▁question :
▁cult ural
▁tool s
▁off ered
▁N OW
▁of ,
▁ch oos
▁dig ital
e e.
▁o ce
▁C L
▁b ik
▁sh ad
▁F unn
▁en light
pp er
_ B
▁L uck
g ood
▁cry ing
▁go vern
▁do ing.
▁fam il
is ed.
▁ev idence.
▁sh oes
▁matter s
▁replac ed
▁break s
S A
▁L isp
▁We b
▁al gorith
/ re
▁now ...
▁3 2
▁human ity
▁vis ual
clud ing
▁all eg
▁&gt; &gt;
ou st
▁1 ,
▁mult i
▁n in
▁say s,
▁imp lying
▁bo at
▁w edd
▁arm ed
▁Fed eral
▁2 2
ur l
F L
▁any one.
▁emot ional
ry ,
▁screw ed
no v
▁Cons idering
ar ge
▁act ive
▁K ill
it arian
▁house ,
▁politic ian
▁redu ce
a fe
_ A
▁illeg al.
▁They 've
](http://www. s
n a
▁G ree
▁all owing
▁un ion
▁( with
upload s/
▁g ar
▁friend s,
▁real ity.
▁As ian
▁val ues
▁cl imate
i ate
▁H ot
▁social ist
ag ic
g irl
n am
▁b um
iv ity
▁leg s
▁lab or
▁mom ent.
▁el im
▁cart oon
▁M or
▁happen s.
▁E nd
▁inst ant
▁bl at
▁ ub
ly mp
▁&gt;I f
▁di et
rel ig
l or
▁himself .
▁rid ing
al in
-t ime
▁pro ves
▁ar bit
▁though ...
▁ev ents
▁friend ,
ke l
▁Hmm ,
▁&gt; P
K K
d en
▁so ap
▁A B
▁off ended
▁they ?
▁zomb ie
▁mad e.
reddit.com/ comments/
▁incre asing
▁s ist
▁food ,
▁n ice,
▁point s.
d .
▁re verse
▁infin ite
th en
▁we igh
oo per
▁po ison
▁level .
▁ri f
▁sh aring
.jpg ).
▁re ward
▁p ink
▁was ting
▁M ur
▁batter y
▁cens or
ra wn
ic ing
▁w age
▁porn .
▁ack now
▁law ,
bl ing
▁up per
▁appe al
](http://www. m
EE P
▁f le
▁tw ist
▁pro ced
▁water ,
gen cy
▁agre ed
▁think ing.
H !
▁P M
▁en gin
▁sm ug
▁vir us
on ent
un ning
AN D
▁Reg ard
▁G M
▁cap ac
▁warn ing
ate ly.
▁mind ,
▁se ven
.... ..
on 's
▁apart ment
if e,
_ is
▁D og
ou che
un te
▁peop les
▁F ind
▁report ed
▁De ath
▁left .
▁h ors
▁are a.
▁am .
▁2 ,
ation s,
▁done ,
r ite
▁al ot
▁A tt
▁h idden
▁off ense
▁well -
that 's
That 's
▁book ,
on ?
os ed
▁set t
▁is nt
▁D ick
▁wor ship
▁relig ion,
ers !
▁through out
▁conserv atives
ct or
▁ok .
▁L ou
ur day
▁Comm un
T V
▁la z
▁fl ip
▁hyp oth
▁r ating
▁Sh it
▁S orry.
▁con ce
▁i .
▁doesn't .
▁not e,
▁sex ,
▁ob ama
▁market .
e ed
t here
▁civil ians
▁d ies
▁per pet
▁W OR
▁S aud
▁2 3
7 4
i ?
▁punish ment
▁or ang
▁K arm
a /
▁dom ain
O B
▁Ste ve
5 00
▁relig ions
▁nast y
▁year s?
pell ed
b re
▁equ ip
▁Th om
▁find s
ul ated
▁pre -
ul f
▁aud io
█ █
▁P ot
▁ph enomen
▁poor ly
v ill
ro b
▁un re
▁B at
▁act s
▁G ame
▁attack ing
ic .com/
▁hat red
▁/ s
arc raft
▁bad ly
▁*you *
▁There fore
▁phys ically
▁H ol
▁care ful
▁inter act
bl ack
t ,
▁ble w
iz ations
ch .
▁vag in
/ ?
i. e.
▁N AS
▁sy ntax
i ation
▁stri ke
i ent.
▁co -
ac s
▁night ,
RR RR
▁conc ent
▁pat ent
▁REA LLY
▁t ask
▁quot es
▁h es
▁* and
play er
▁hope fully
u e,
▁H um
▁be ach
▁V ir
▁child .
pl an
▁Afric a
▁( n
▁happ y.
▁W estern
▁t ur
▁high .
▁me l
os en
▁gam es,
▁Democr at
▁evil .
▁hyp ocr
▁te a
▁h int
blogspot .com/
▁mind s
▁comment s,
▁guarant ee
pe ach
OU LD
HHHH HHHH
▁own s
▁N ational
▁does ,
▁C ra
▁of t
▁ch ain
▁Qu ick
▁be ef
▁princi ple
▁h unt
▁Inde ed.
▁dist ance
ard ,
r ational
ess ed
▁custom er
▁point less
▁a th
search ?q=
▁outr age
r ink
▁confus ed.
▁par king
▁att ention.
▁char ges
▁room .
▁E as
▁feel ings
▁Sad ly,
▁w ine
▁though ?
▁j e
▁comment ing
▁ag e.
▁U gh
▁re nd
▁app s
▁P oint
D E
▁weird .
▁comp aring
▁Obama ,
D F
▁away ,
▁Sm ith
p- content/
▁S k
▁graph ics
▁br anch
▁Bes ides,
▁shot .
o )
▁dif f
▁prep ared
%2 F
▁favour ite
ug s
▁way ?
▁women ,
▁sort s
j ud
▁pat ri
▁b om
▁eth nic
▁ch in
8 2
▁occ as
▁br ut
g ers
▁lob by
▁suff ering
▁rh etor
r ough
▁R ad
▁experience ,
um in
▁submiss ions
▁stom ach
▁ton ight
▁Obv ious
u rop
ograph y
uck et
▁r ise
▁advert ising
▁Should n't
m in
▁warm ing
▁F act
▁tri v
p arent
▁r am
▁mur dered
▁home ,
▁colleg e.
▁decis ions
n ing.
▁jew s
▁l atter
▁expl icit
i oc
▁h ill
▁R om
ish ed
▁st ating
▁exerc ise
▁Defin itely
▁context .
▁sp amm
b an
ing er
es. com/
▁Us ing
a "
al bum
o !
-to -
and on
▁Fr ance
▁NE VER
▁Pl ay
▁Ph il
ie =
▁assh ol
▁p itch
olly wood
our se
▁kid ,
▁sp ace.
▁ter rif
▁wit ness
▁p age,
ail .
▁F org
▁9 9%
gramm ing
▁depart ment
lo ve
▁K N
▁A W
▁impress ed
▁manag ement
osp here
▁J o
HAHA HAHA
▁ON E
vie w.
▁bal ance
▁fund ing
▁capital ism
▁Oper a
l ay
▁critic ism
com ing
▁song .
v is
en -
▁simple .
▁sm arter
▁tax es.
▁prov iding
ON G
▁Rem inds
▁iP od
▁controll ed
▁fem in
w ater
▁long ,
ers "
▁cont rovers
▁ey es.
▁DO N'T
▁p in
▁sent ence.
▁us age
▁port ion
▁me g
A sk
▁lock ed
▁too ...
K .
▁H ome
▁up modded
ig sl
▁destroy ed
▁show er
id en
ell ig
▁less on
▁s ne
th ,
▁compl icated
▁w et
▁say ?
▁har sh
o very
▁engine ering
a uc
im age
▁al arm
▁din ner
▁L ittle
▁ment ally
ww .
fere nt
▁dist ribut
▁lead er
▁friend ly
▁whatso ever
▁S chool
▁in evit
▁un cle
▁' c
▁M art
▁pro port
▁woman ,
▁experi enced
C A
▁mov ies.
re .
▁for cing
▁cent ury
▁[ h
▁Al ways
▁Univers ity
▁question s.
▁d ance
v id
▁honest ,
▁attack ed
** ,
▁to ss
ack ing
▁mouth .
▁book s.
put er
R .
a e
b ama
N G
▁draw ing
f ather
▁unf air
▁respons e.
uck ing
▁un comfort
at ical
▁li e.
we ight
▁here ...
▁else 's
▁C ity
sp ace
▁no ?
- 10
▁inform ation.
▁disgust ing
▁pract ical
b e,
▁at .
AR D
▁dism iss
r ast
▁per hap
▁adm itted
gy pt
▁democr atic
ild ren
8 3
▁tax p
▁" no
▁rem em
▁f rench
▁be g
▁them e
▁H ahah
▁Up modded
▁mistake .
ph as
▁a h
▁veget arian
▁F Y
▁Afghan istan
▁st ress
▁control .
▁correct ly
▁con duct
he ll
st al
4 6
▁L ord
▁col our
▁com edy
ence ,
▁emot ion
▁Bar ack
▁Was n't
▁tri ll
an ny
▁ignor ing
▁heav ily
-f or
▁comb ination
▁D el
▁unfortun ately
▁li ves.
▁prom ise
reg ard
land ,
9 3
s ).
▁W ars
▁Al ask
▁link ,
▁[ E
▁list ed
▁sca re
▁ar rog
▁tw itter
▁th ick
p ace
▁P at
▁gen ius
ish ,
▁otherw ise.
▁int end
▁M ass
▁g ear
iction ary
▁D S
▁fun ct
▁( i.e.
um s
▁YouT ube
ac y,
▁" This
▁Washing ton
or ough
▁o l
▁( p
▁cl oud
imageshack. us/
% .
man ,
▁+ 1
▁for b
▁ke ys
▁suppor ter
▁hell ,
▁v an
iz ar
▁sit e,
▁Seriously ?
▁far ,
▁suggest ion
▁telev ision
▁vers ions
wor ks
▁fall s
▁[this ](http://
▁* l
▁A ID
▁morn ing.
▁encour age
▁ex cess
▁adv anced
ack s
▁Are n't
vide o
▁ob liv
▁B ur
▁mor on.
gr aph
▁bod y.
▁ske pt
▁cons ent
▁1 st
▁genuine ly
▁p ile
▁educ ated
ed uc
▁S af
are n
▁at m
▁Bl ue
▁D et
▁vot ers
▁ign ored
▁M M
▁get .
▁lo an
ist ?
▁r om
▁di am
▁ser ious.
▁E U
▁gee k
▁breat h
▁G re
r ating
▁C #
▁ag n
▁another .
▁PS 3
▁m erc
7 2
▁bl own
▁"I t's
▁se a
▁ ought
▁w /
▁it ems
▁S S
▁life ?
ol er
ign ed
▁Paul .
= 0
_ n
▁F B
it led
ig ger
an ut
▁met aph
▁thread ,
▁sl avery
▁( C
](http://en.wikipedia.org/wiki/ S
▁deli ver
▁cr ush
▁sour ce.
▁WW II
▁H aw
ul u
▁defin ed
n er.
▁n ations
▁mo de
is ely
whe lm
▁hor ror
▁sw ord
ag es,
9 2
▁oursel ves
▁v ill
▁so ?
▁col on
▁I I
▁do zen
▁fr uit
▁S ir
▁G ore
▁strong ly
Wh at
▁lawy er
d ro
▁pro hib
7 /0
_ l
▁curren cy
▁webs ite.
▁d u
▁pl ants
▁We ird
▁scre aming
▁dis p
▁path etic
Ask Reddit
▁own ers
▁through .
▁fan cy
▁c ere
▁P oor
▁yell ow
▁B UT
▁reason s.
▁li ft
acc ur
el ,
org an
▁tr ait
▁challen ge
ro ad
▁lead ing
▁sus p
▁disc over
▁pack age
▁In s
ered .
▁cor rel
▁go at
▁in put
▁mort g
i at
▁&gt; C
p m
▁stop .
k ers
▁Be at
▁dun no
st ate
ell ,
▁somet imes.
▁dec ades
▁p ipe
▁W ork
wh ite
▁C A
f in
ib ility.
▁dise ase
▁S uch
▁un us
▁L ist
▁vol unte
▁bow l
c il
▁inde ed.
▁3 5
▁asham ed
▁f ag
s m
▁reason ing
er ved
▁real ise
edit :
▁M iddle
▁fuck s
▁report ing
▁cr u
▁econom ics
it es.
▁serv ice.
r ad
▁sill y.
- de
imageshack.us/ img
ik i
▁sound ed
f ord
▁coll apse
▁ident ify
▁struct ure
▁w est
▁par ad
▁c ure
al u
▁regular ly
/ A
▁coll aps
I CK
r id
▁log o
p-content/ uploads/
▁stop ping
▁cas ual
▁remind ed
▁insan e.
l ord
▁sub tle
▁worth less
▁shot gun
or s,
▁met ric
amaz on.com/
▁p oo
▁store s
RE AK
/comments/ 8
B S
▁would .
▁th ro
ther n
▁conv ention
▁pow ers
▁mem or
f =
▁vers ion.
▁" not
hh h
-h and
▁car bon
▁support .
▁ne o
sh it.
▁res ort
▁B ank
et ary
▁ed ited
▁needed ]
▁histor ical
▁upgr ade
▁k ing
▁po ly
▁protect ion
- E
b les
▁s ung
▁inter face
▁T ur
▁st age
▁sold ier
▁R ick
▁there ...
▁l one
▁week ,
r m
y es
M S
▁ch ill
▁L ong
ub m
F A
▁to oth
▁sub t
n es
▁dog .
▁t as
](http://www. c
▁inf er
res pect
▁Tw itter
▁( B
▁liber als
▁pract ically
▁deli ber
▁t one
▁conven ient
ed ge
▁collect ion
▁teach ers
▁r ail
▁pres um
▁ter rit
▁nons ense
itut ion.
▁chocol ate
▁6 .
▁determ ine
](http:// m
▁d ust
▁P E
▁well ?
▁everywhere .
olog y,
ah a
ens es
▁i. e.
athe ism
▁also .
▁pret ending
▁produ ced
▁B L
n ight
▁webs ites
U TF
▁fre e,
▁exist ing
▁kidd ing.
▁t -shirt
▁" pro
▁prov ides
▁boo bs
ic ien
h ttp
▁rock ets
▁wait .
orm al
▁test ing
oun ter
](http://www. imdb.com/title/tt
le tt
_ 0
▁Jack son
▁Sun day
!!!! !
as e,
x kcd
▁* the
▁associ ated
w ing
enc es.
se y
user /
▁blood y
▁appl ied
▁invest ment
▁qu arter
▁fun ,
▁night m
▁THE Y
p an
▁Democr atic
tm l
▁incred ible
▁org asm
▁T alk
▁main ly
... )
▁expl od
▁up !
▁r ant
▁tri gg
▁liqu id
w rit
ur y.
▁D U
▁* P
▁vag ue
▁Get ting
▁w ipe
▁P O
▁we lf
▁r aw
▁place ?
▁w ise
6 00
▁D i
▁was ted
▁paran oid
▁high light
un ction
▁day ?
▁It 'll
rast ruct
▁while ,
▁sex y
▁bill ions
s es
▁rep ut
▁everyone 's
ri es,
_ you
▁switch ed
▁apolog ize
▁now !
▁D ID
▁oft en.
▁sp ray
▁ref ers
▁Canad a,
▁effect ively
gg ing
▁exact ly.
k i
u y
_ .
▁St ud
▁fant asy
est ed
N ew
▁/ b/
ul a
▁c os
▁w ip
▁rest r
▁gen i
▁( M
▁forg otten
▁d up
▁train ed
e ?
▁money ?
v il
▁r um
▁degre es
▁thought ,
▁music ,
▁consum er
▁individual s
▁cr uel
▁prosec ut
▁gen etic
▁sal t
▁' d
AC T
▁ok ay,
▁no ise
▁fast .
▁g oog
▁Ha ven't
▁count ries.
av y
▁adop t
ke ys
▁H U
▁t or
▁C R
▁b att
▁aw ard
a le.
▁stud ies
▁Cl ass
▁P A
ob ucket
-w ing
▁L at
▁attract ed
▁air port
▁shop ping
▁&gt; *
▁Pleas e,
new s
rist ian
▁Libert arian
- off
▁comp at
stand ing
▁over ,
al ?
▁f ict
O ,
▁J ames
▁Sp ace
▁dial og
▁the ft
▁- --
▁speak s
▁Cap tain
▁F ur
i ver
5 4
k ind
m A
▁or dered
▁pen is.
▁ q
▁he ck
▁t ends
5 6
▁anything ?
G A
▁gent le
▁sa uce
▁Ir ish
▁so ...
▁am endment
ar ry
▁att end
▁Every body
▁A lex
▁"I n
▁lead ers
g er.
▁way s.
▁interest s
aw are
▁En joy
th es
edu /
s. org/
▁eat en
way .
wh ich
ER S
▁second s.
▁b rief
air s
# #
▁manag er
E !
▁matter ,
a ugh
▁b ite
▁* are
ct ure
▁esc ape
▁har ass
▁e lev
▁E lect
▁hous es
▁dec ade
▁discuss ion.
▁incre ased
▁trans fer
▁Really ,
om p
▁profess or
▁Some body
▁lo ving
▁suff icient
▁is land
▁LI KE
es ome.
▁ad just
▁shock ed
▁dis pro
▁gr asp
▁laugh .
▁O' Re
▁pron ounced
▁Right .
▁opt ion.
▁Sp anish
Q u
▁exactly ?
▁Br own
▁else ?
he art
▁polit ics.
▁c yn
▁lif et
▁* H
▁karm a.
▁swe at
▁Ag ain,
▁k ern
▁was t
▁7 .
▁T op
▁rest rict
▁whatever .
▁child hood
▁can ,
if orm
▁&gt; F
▁hold s
▁part ,
▁http://www. s
▁des ert
OT H
▁J an
▁bill s
▁care ,
▁sleep ing
▁J UST
b ay
▁V er
▁inf rastruct
at a
▁analog y
▁comp ress
▁girl s.
8 00
▁rough ly
. *
▁p ounds
▁im per
a ed
▁* B
▁other ,
▁enem y
▁ne at
▁side ,
aa a
▁correct ,
▁sk ip
▁H uman
▁cy cl
▁obv ious.
▁ 're
▁L ive
▁V is
▁hurt s
am in
▁addit ional
▁When ever
▁discuss ing
▁20 12
um ,
▁h iding
▁co verage
▁n umer
▁m ild
▁d ynam
▁sem i-
▁C op
▁( P
▁" ...
▁P ower
▁where as
▁' h
▁pur s
▁box .
ul ating
▁attempt ing
b .
▁be ats
tr ans
▁important .
▁Up vote
▁Y EA
con f
▁fr ank
ott a
▁D ub
v ention
▁ins p
▁ap ost
▁typ ed
▁" ch
▁fant as
▁Pol ice
i ac
▁pun ctu
▁utter ly
AM N
▁pro s
▁rep ost
▁10 .
▁th ose.
▁somewhere .
/ B
ard en
▁dist inct
▁ac adem
for um
al y
▁res olution
▁Tr ust
▁ult imate
ed *
▁suggest ed
▁tr y.
▁stop s
▁Sc ott
▁man !
▁an gle
▁problem ?
▁your s.
▁statist ics
▁C ut
el s.
▁win s
▁cont ains
u ild
▁"N o
▁Otherw ise
▁bad ass
▁hard core
▁fire .
▁athe ist.
f re
▁Naz is
▁hon or
▁d uck
▁Rich ard
▁Wh ether
ub e.
▁Off ice
▁co ast
▁S N
▁refere nces
▁( D
▁[ "
ex pl
reddit.com/info/ 6
▁r ang
▁wait ...
▁d ow
▁an cient
▁4 00
▁American .
▁ok ay.
▁* M
▁downvot ed.
▁bit s
ep s
▁offic ially
▁Per l
▁Budd h
▁ser ved
▁start .
▁camer as
▁Cons erv
▁impress ive
▁Vir gin
▁Ir on
▁US B
▁C ON
8 )
▁M AN
I VE
▁t urt
if ferent
▁L OT
_ g
▁down ?
ber man
▁*and *
▁M ormon
▁rem ains
▁effect .
▁9 11
▁test s
▁R oman
▁idiot s.
ere r
L C
ob s
▁L ight
▁amaz ed
▁w ww.
_ st
eff ect
urop e.
▁he ight
▁don ate
l ine,
im ages.
m other
▁AM A
▁a ver
▁she l
▁children ,
▁sa v
▁fail s
- H
▁c aps
aw g
▁med ium
▁l in
▁invol ves
ol t
ri l
▁pure ly
▁F ight
ed ...
▁fault .
▁think ?
▁TF 2
▁state ,
▁Qu ite
▁tradition al
▁m ood
▁why ,
▁cont ent.
f w
▁St reet
▁ill ust
th read
▁do gg
▁teen ag
▁addit ion
ak .
▁* st
▁J eff
▁w ow.
▁* C
▁gun .
re nd
▁Brit ain
▁ent ry
se ct
▁l ately
▁post s.
▁Ye a
▁sl ave
▁Part y
▁sung l
il ed
av ed
▁poss ess
▁Al right
▁TV .
▁invol ved.
▁1 50
▁res ident
▁awesome !
wh en
▁H i
ot ch
se ll
▁gu ard
▁offic ers
▁ch at
▁pain ful
▁:- (
ex cept
▁mach ine.
▁Ne ed
▁t in
▁rac ial
ie= UTF
ic ation
▁large ly
▁O UT
▁as s,
▁gr ant
▁death s
▁bac on.
▁frequ ently
▁[this ](http://www.
o ice
▁Sim ps
p df
▁What s
▁crap ,
▁sh ark
b ust
▁dri ven
▁Lear n
▁dis aster
▁Cap ital
▁dunn o,
▁Any body
▁form s
▁government s
pres s.com/
▁Th ree
▁Mexic o
▁B ell
▁Gr and
▁bug s
w as
▁groc ery
▁Canad ians
▁English .
om y
r ot
▁tong ue
▁8 .
▁annoy ing.
TH ING
▁creat ive
▁Rub y
phot obucket
4 ,
▁week s.
▁view point
▁in h
▁inst ruct
▁episod es
▁n it
less ly
photobucket .com/
▁ab andon
▁r oof
▁unlike ly
▁E gypt
▁enjoy ing
▁rac e.
▁t un
et ic.
▁commun ity.
▁shit ?
▁Could n't
▁P ri
f all
▁D A
▁ir rational
re dit
ud ge
b in
▁st ars
▁ass ist
▁bl owing
▁Sm all
ing e
▁fore ver.
▁WH Y
4 )
▁Th ings
▁f ab
▁rel ax
it !
▁Chicag o
▁Sh it,
▁ball s.
▁D C
▁manufact ure
▁man ual
▁che ating
▁burn ed
▁w is
▁c am
ing *
e h
▁h ence
▁R ED
▁to y
d ed
▁inst ance
▁end ,
▁help ful
▁stat es.
▁P ir
▁Hah a
er y.
et ter
i os
▁inc ent
▁langu age,
▁red neck
T C
▁t ied
▁O dd
▁At l
▁m art
▁4 th
gre g
▁J u
▁funn ier
▁sens ational
▁[ J
r ument
▁rep rodu
▁pron ounce
Z Z
▁word ,
▁m all
▁H om
est s
igh *
▁Bush .
/comments/ 7
▁base ball
▁fl ood
▁P op
▁bas h
▁X box
▁budd y
oo .
▁jump ing
▁IS P
ros s.
▁same ,
▁Val ve
app ropri
rop he
▁tw enty
▁lad ies
▁( al
▁natur ally
▁mult i-
▁wr iter
▁M il
▁Pak istan
I t
▁B uff
▁mess ages
▁st one
a j
album s/
▁b in
▁Y outub
ical ,
▁P olit
▁st er
ic es,
ly *
▁NY C
▁s ust
▁inst rument
▁over whelm
▁suck ed
▁They 'll
ce ler
▁infl ation
D A
▁wal ks
▁l it
](http://en.wikipedia.org/wiki/ M
▁ent itled
res s,
▁M ario
▁bor row
- on
▁m ature
ab b
x x
▁rat io
▁head ,
▁streng th
▁Phot oshop
4 8
word press.com/
▁bar rel
-d own
▁ch osen
g am
▁for th
▁dev il
u ge
▁I gn
▁" un
ing ...
▁S qu
▁man ner
▁s ight
▁jeal ous
.co.uk /
op her
▁refer red
▁period .
▁Gaz a
▁second .
▁R ush
z illa
ex ist
▁' n
▁ded icated
▁W ater
▁aw h
▁kitch en
▁her ?
▁V ote
G H
▁n ipp
▁know led
▁bon us
um n
▁hand s.
w ear
▁exper im
▁[c itation
▁set up
▁b ars
▁ —
▁better ?
▁2 6
▁" Th
▁Y ES
▁c ir
▁( l
ic an
▁with ?
▁T yp
▁off ering
▁differe nces
▁stupid ity
▁contrad ict
▁( but
▁elect ion.
▁Austral ian
ate gy
ore .
▁ste am
▁Col bert
vel ope
i 's
r t
▁BTW ,
▁CP U
▁respond ing
▁econom y.
▁be gan
▁* all
▁tal ent
▁applic ations
▁p ra
▁cal m
▁ord ers
og rap
▁" sh
▁* every
▁work s,
▁creat es
▁deli very
▁N P
▁V iet
eal and
▁[ f
▁play .
▁ph ones
▁fail ing
▁Agre ed,
W e
▁store .
▁v en
▁question ?
R O
▁comp rom
p al
](http://en.wikipedia.org/wiki/ C
▁administ r
▁Sec ret
▁cho ices
▁shot s
▁dec re
/ D
▁Tre k
▁consequ ences
▁scre am
▁par all
▁IT 'S
▁sup pl
▁KN OW
▁an onymous
▁loc ation
▁anyone ?
rr rr
ul ations
te chn
▁tri al
▁fake .
▁red und
▁she 'll
y -
▁after ward
▁search ing
▁f als
▁Pl an
▁r is
▁adult s
▁Y up,
▁ch op
▁200 7
▁as leep
▁w ife.
e 's
▁sh ared
▁ter ribly
▁signific antly
I RE
▁[ d
▁L og
▁read ,
▁curi ous.
▁dumb .
▁Spe aking
](http://www. google.com/
able ?
▁G N
▁Ad m
.html ).
ur .
er ation
▁interest ing,
▁ca us
▁inv ite
ia ?
▁Ste am
▁build ings
awk ins
Edit :
▁Up vot
▁law s.
U SE
▁be ard
▁mag net
▁tre es
▁R og
P P
▁set s
ri fic
▁express ion
▁e -m
se mb
▁K ey
▁b izar
tin yp
) ...
▁ph one.
▁gun s.
▁"C h
▁Look ,
▁software .
v an
▁S ource
▁dr am
ro duct
▁Y ay
▁j oy
▁lif est
▁exist ed
▁plan et.
▁add s
](http:// img
▁subm itter
_ on
ic ious
▁Jesus .
ch ang
▁r ush
▁situ ations
▁pro cess.
▁Relig ion
ot a
▁mo l
▁I re
▁Some how
in ction
ush room
▁function al
r ants
▁guy ?
▁few er
▁w olf
▁in accur
▁B A
OU T
▁push ed
▁the ory.
▁R P
ative .
▁tr ut
▁ri ot
▁occasion ally
▁" th
▁in nov
▁( O
▁miss ion
▁F ar
▁mess ed
▁"H ow
▁w itch
▁comp ens
▁sy m
▁social ism
▁reg ister
▁love .
▁well ...
▁not ion
▁prof ile
▁act ively
▁M ind
▁fan boy
▁gener al.
▁article ?
▁in ject
▁bar .
al ib
ocr acy
s he
▁g al
cl ude
te en
▁genoc ide
tinyp ic.com/
▁hum or.
▁sp are
▁welf are
D P
▁b og
anc es.
est ine
▁time ...
▁de let
▁st amp
▁here !
et ically
▁Y ahoo
▁sl ap
▁polit ically
▁dollar s.
▁dress ed
▁adv ice.
▁Saf ari
▁one !
▁Scient ology
▁log ic.
▁W ILL
▁subst ant
▁obsc ure
Y !
▁g ather
▁V ot
▁se ed
▁al ph
▁3 :
▁co c
▁O lymp
B A
▁[ m
▁d ated
▁' m
▁dec ad
▁shar p
▁president ial
▁now ad
▁l ung
▁intern al
t v
_ D
▁sp ons
▁An n
▁AT &amp;
▁person 's
▁iT unes
▁cl othing
▁Sh ut
▁attach ed
▁modd ed
▁trans m
▁V i
▁smo ked
▁ground .
ra h
_ (
▁d udes
_ 1
▁He alth
4 2
▁grow th
t w.
▁men u
▁Tot ally
▁rep lying
▁odd s
olog ist
▁later ,
▁ridiculous ly
▁sex ually
com .
](http://www. b
▁random ly
▁employ ee
▁bi ased
▁criminal s
▁Pro blem
-s pe
▁the or
an 's
▁" K
▁ch ap
▁ed ge
▁"Wh y
▁ne ed.
▁cous in
k et
i xt
up er
▁smo oth
▁p y
▁inv is
](http://en.wikipedia.org/wiki/ A
▁victim s
▁im peach
▁repl ied
▁n ick
▁B ook
▁str ategy
▁1 /2
▁stre ets
▁Saud i
an ?
▁( un
i ant.
▁y o
▁appro ve
▁sp y
ake .
▁democr ats
▁pr ime
▁am using
de v
▁decl are
▁report s
▁triv ial
▁| .
3 )
▁di ed.
▁remote ly
▁develop er
▁incomp et
▁bandw idth
5 7
-m ind
▁ref used
▁cont ribute
. php?
▁see k
pr ot
▁pot entially
▁d ip
▁st ink
▁h ating
▁up s
▁number .
▁un iform
▁per ce
▁hom es
▁J ones
▁black .
▁Ch uck
▁profess ion
▁* D
▁civil ian
▁speech .
▁t empt
▁I F
▁supposed ly
▁part ner
▁ri pped
▁acc us
▁** I
▁ch uck
▁down -
▁g ut
▁cl im
n ers
▁b icy
▁D u
▁M ike
photobucket.com/ albums/
▁$ 200
▁B ost
int end
▁3 ,
▁Y E
s ://
▁" what
▁Le ft
▁agre ement
▁blow job
- W
▁appro x
is y
: :
w alk
▁st ance
▁belong s
a )
▁mod els
Y P
▁C ertain
▁In ter
▁E urope.
AY S
▁ir rit
or ?
▁F ound
▁St ay
▁dom estic
▁emer gency
▁f o
▁Person ally
▁[Here 's
▁black s
▁M at
▁scen ario
▁f its
▁lol ,
▁me :
▁medic ine
ow se
▁( t
▁sec ure
▁ener g
▁elabor ate
im es,
▁F un
▁WH O
▁din osaur
AS T
▁autom atic
▁of ?
▁T ax
▁show ,
▁rul es.
y. "
▁egg s
▁It 'd
▁head line.
ra vel
et s.
ic orn
▁F L
▁term .
▁vol unt
▁ens ure
▁S A
▁pow er,
▁&lt; 3
▁F ord
P A
▁own ership
▁bitch ing
▁person ality
▁en velope
▁pe anut
z ,
▁inst ance,
▁please ?
▁repl ies
▁Mexic an
▁t its
▁br idge
▁up side
▁bl ast
▁serious ?
▁c ity.
E G
om al
▁scient ist
▁W ANT
▁drink s
▁3 )
AT ION
re ck
▁comb at
▁advoc ate
▁st icking
▁B ay
▁off ?
▁grav ity
▁sw ing
▁stay ed
a ire
▁she 'd
▁A ut
▁atm osphere
▁re in
▁plac ed
▁Hu h?
▁pat ient
a ver
▁f iction
▁sur face
▁bod ies
▁Step hen
▁M om
▁* N
▁pos ition.
▁vol ume
▁t ie
▁c ath
▁O l
▁idiot ic
▁vac u
▁port ray
OO K
▁need ed.
▁( "
B M
▁l ord
▁act ion.
▁2 8
▁Ar m
▁hun ting
▁mar gin
re c
ri er
▁sc ar
▁etc ...
▁jump ed
▁mor ality
▁pro ceed
▁h ired
▁W onder
▁C ook
▁P ay
▁pleas ure
- gr
▁b ong
at ics
▁st orm
▁E xt
▁sa le
▁2 7
reddit .com
▁val ue.
▁experi ences
▁Jesus ,
▁rec urs
▁subscri be
▁regist ered
- be
▁terrible .
u il
▁mount ain
▁H IV
▁r age
B .
c er
s pe
▁pre ced
▁world ?
pell ing
▁the ories
▁hand ed
▁R I
▁http://www. c
▁Ad am
▁win ter
▁v ent
▁S anta
▁anyway s.
▁( H
▁past .
▁boy cott
▁LO VE
bl ed
qu al
▁clos e.
ub b
▁real ,
▁lot ,
iz ard
▁"f uck
index. php?
▁th orough
▁"O h
▁bom bs
▁L ess
▁dict ator
ak er
▁worth y
▁piss es
▁popul ation.
▁( F
N D
r ick
▁develop ing
▁publish ed
ore t
▁cl own
▁N ic
▁complain t
▁wedd ing
▁N ame
▁reg ulation
es ...
▁americ ans
▁mess age.
== ==
a um
▁reach ed
ment s.
▁He h,
▁step s
.com/ w
IN K
▁p it
▁Z ealand
▁dro ve
▁H istory
belie v
▁Iraq .
▁ab us
_to _
▁*are *
▁indust rial
▁d amm
es "
▁e ats
▁drug s.
▁count ing
▁prefer red
▁r az
ifi ed.
▁re ly
▁h oles
▁* al
id ers
▁F ore
▁: p
▁acc used
▁download ed
▁download ing
Is rael
E L
art icles
▁http://www. m
▁datab ase
2 1
v ed,
▁d rawn
▁A .
▁P en
▁V P
▁Kore a
ate ll
ograph ic
▁esc ap
i =
▁fl esh
▁sn ip
b ered
n ox
▁W AY
▁roll ing
](http://en.wikipedia.org/wiki/ P
AR T
▁valu able
at ers
▁Abs olutely
ty pe
act ive
H ING
o h,
se ud
▁me al
▁art ists
▁"I t
▁W ii
▁fire arm
▁s am
▁us ?
ick ed
int erest
▁you :
▁c ave
▁group .
▁First ,
▁B on
▁en for
▁Aw esome.
l ers
▁V eg
▁clar ify
▁" de
▁break fast
▁spo ken
- G
▁the rap
oll ow
▁exp ensive.
▁DN A
▁stim ul
/2009 /0
▁9 .
▁sens itive
o "
▁ste el
▁stay ing
▁D on
▁80 %
▁sol ved
▁Florid a
▁pil ot
D R
▁F eel
cl op
im edia
▁top .
▁USA .
_ T
▁said :
▁Fre edom
▁' p
▁bas hing
▁argument ,
▁bit ter
▁histor y,
▁exist ,
and al
▁&gt;I t
▁OK .
▁load ed
▁H y
▁F ut
▁such .
OU S
RE E
▁Fur ther
▁F ant
▁rep res
▁activ ity
_ W
▁em phas
▁screen shot
](http://en.wikipedia.org/wiki/ F
▁enlight en
▁don't ,
▁tr ap
▁very ,
▁r ation
▁vari ety
▁O ct
lim ited
so cial
▁sty le.
f ish
▁em bed
ri gg
or por
▁American s.
7 9
▁project s
iz e,
▁atheist ,
▁s outhern
▁c ite
- 11
▁pen alty
▁Sat urday
ag ging
▁men ,
▁s ane
▁Tru e.
▁pre f
ex per
▁G otta
OO D
▁conf ident
▁bab y.
g b
▁hol ocaust
▁pleas e,
▁f at.
us ic
▁No ve
▁mor ons
▁condit ions
_ G
▁mem e.
▁happen ,
st ory
▁sne ak
▁tw ice.
▁str ateg
▁kill er
▁destro ying
ch a
aaaa aaaa
▁downmodd ing
▁prec isely
▁analys is
c o.uk
▁P oss
▁st ood
▁ment ions
▁g host
▁R un
▁disc ount
▁room mate
I m
▁li king
our .
▁conc ert
AM A
▁to b
▁D ie
a. org/
▁st able
▁dro pping
▁back up
▁assum pt
▁vie w.
____ ____
▁* F
▁he lm
▁so cially
ount ain
▁cons ens
▁mor ally
▁dow nt
▁car s.
▁im pr
▁Down modded
▁it. "
▁Y o
▁He ad
▁mon it
▁Tw ilight
f ly
▁g f
▁cond em
▁g ym
▁consist ent
▁ex agger
▁mis er
▁ex posed
li ber
ir rel
▁ele ph
▁solut ion.
▁F R
▁ }
▁b are
▁one ...
▁inform ed
- v
at s.
▁bag s
▁prom ote
▁ins ert
▁program .
M ENT
▁b one
▁b ond
▁b ands
▁T IM
▁test ed
▁thanks !
ill ed
](http:// d
▁impl ied
es ign
▁R A
▁famil ies
▁D amm
▁un con
7 8
▁[ b
▁d ual
▁business es
▁polic y.
▁Re agan
▁p ython
▁H OW
I X
▁guess ,
▁listen ed
/ her
▁anymore ,
il st
▁old s
▁fact s.
▁sl ut
▁public .
or a
- k
▁us ed.
▁c rop
▁make .
ould *
▁link ing
▁bo om
▁FA IL
▁troll s
▁P et
▁annoy ed
▁mo ves
▁priv acy
▁smell s
ER Y
▁adv ance
▁d ang
▁C ivil
▁Ch ar
er ies
▁ph on
ag ram
▁" be
▁diam ond
▁* a
▁hour .
▁on line.
▁correct ly.
▁dist ribution
▁both ers
▁occur red
▁A :
one *
ig ur
▁priv ile
▁v amp
▁past e
▁T oday
▁Y up.
▁broad cast
ber ry
▁20 %
oc key
c use
▁C ause
▁ret ail
▁an ec
ag ain
▁r aid
▁one :
e an
▁cop ies
▁C ub
▁B M
▁fuck ,
▁mon ster
▁Israel ,
▁oth ers,
0 )
▁res c
j ack
▁lo ans
▁American ,
imm ing
▁ch est
▁gay s
w l
es pecially
▁some one.
▁suggest s
▁M ORE
▁* g
pr ise
▁descri pt
▁[ Y
▁b old
▁sp aces
▁GU I
▁A R
▁quick ly.
▁H appy
▁dis k
▁mot ion
6 8
▁wire less
▁disturb ing
ll y
▁poll s
▁ret ire
▁deb ate.
▁M eg
200 8
▁accur ate.
▁e c
▁co al
▁fac es
▁invol ving
▁d raft
▁scre en.
▁month s,
▁Funn y,
us i
xkcd .com/
▁nar row
up port
▁k icking
&gt; &gt;
▁insult ing
▁* do
3 %
▁b ed.
▁ever ,
h ole
▁E conom
▁intention ally
▁art ific
comm un
▁Cour t
▁can't .
▁God 's
▁p uzz
▁an c
ly )
▁che er
▁li p
▁vo ice.
▁e t
▁D awkins
ograp her
n't *
▁Tor ont
i ence.
▁B acon
▁collect ive
▁f ought
go ing
▁W R
▁fe e
▁inf ring
▁newsp aper
- N
up pet
▁plan .
▁cris is
▁this !
▁T est
re te
▁u h,
▁T roll
▁pl ate
▁an ger
▁edit or
▁mist akes
▁wh ining
▁su ic
▁pos itions
v a
▁arch ite
▁[ http://
▁i p
▁F U
▁Eng ine
▁B raz
▁Swed en
fere nce.
▁upvot ing
=1 &amp;
▁unnecess ary
ol ve
▁issu e,
ath ers
▁card .
▁cy cle
▁Interest ing.
_ H
e z
▁li ed
▁ch amp
ci es.
▁indust ry.
ug gle
r ac
▁h ij
▁misle ading
- se
i as
▁light .
▁apparent ly.
let s
▁x kcd
▁"g ood
k k
ort ion
w ed
▁bad ?
▁ra ising
▁Abs olute
h ill
▁Car l
▁will ,
▁Ex cellent
▁stat istic
▁brain w
▁quot ing
▁Cath ol
p ass
▁dec ides
▁sole ly
▁shit !
▁so da
▁control s
▁e .
is ion.
wh al
▁Fr anc
▁drive .
▁c ub
▁have ?
▁neut ral
be c
EEP LE
ap ers
act ually
▁answ ering
▁budd y.
▁g lo
](http:// f
▁from ,
st ick
▁UK .
▁americ a
▁ass ass
▁move .
▁monop oly
▁G al
](http:// i
▁wr ap
imes. com/
et he
▁gr ass
I d
/ 12
igsl ist
▁virt ual
▁abst ract
▁sign al
▁pr ice.
▁sub -
alth ough
▁Kind a
▁a pt
▁n erv
▁hair .
om in
▁Inde ed,
▁back ed
▁pro ved
▁You ,
▁DO ES
st e
▁tem por
▁b ump
▁( even
▁pres ented
▁Lond on
as h,
inc ol
▁entertain ment
▁tob acc
▁wr ites
/comments/ c0
ver ,
oo sh
p a
▁te et
▁v ap
resp ons
▁H ann
▁pap er.
▁&gt;I 'm
▁o xy
▁r uss
▁D ou
▁F amily
](http://en.wikipedia.org/wiki/ B
▁McCain .
▁jav ascript
▁r ow
▁electric ity
▁f ond
▁Sy stem
