{"▁Bank":10001,"▁End":9167,"⠎":719,"▁chart":8812,"IL":4540,"way.":10267,"▁To":2452,"▁England":7091,"▁warming":9501,"egr":6650,"▁not?":6353,"▁Braz":11871,"accur":9892,"▁tor":10201,"▁expensive.":11513,"ೃ":535,"▁have.":5774,"▁deserve":5127,"▁cost":2475,"▁sound":1900,"▁NOT":3431,"▁impressed":9554,"▁loop":8701,"▁sung":10012,"▁various":6394,"ddit":1405,"▁2,":9268,"▁TF":7818,"itar":7068,"▁angle":10432,"▁wasn't":2077,"▁username":5846,"bb":7528,"soft":3456,"icked":11495,"▁offering":10833,"ld":1081,"▁censor":9218,"―":551,"lor":9175,"▁99%":9548,"▁congress":7713,"Ͼ":378,"▁replying":11103,"▁off,":5927,"▁smile":8277,"▁[E":9728,"▁ju":6982,"▁12":3352,"▁member":5614,"-11":11580,"ilst":11703,"▁inevit":9624,"▁post":1543,"ograph":3840,"▁post.":5302,"▁McD":7487,"ficult":3987,"▁inch":7312,"cri":2229,"▁Those":3571,"▁like.":5720,"2,":6380,"▁involve":8708,"▁paran":8152,"▁guard":10578,"-W":11211,"▁Where":2662,"▁classic":8086,"ious":1430,"▁Therefore":9356,"▁combination":9716,"irty":5371,"▁McC":2976,"▁~":5714,"▁Call":6273,"▁LO":7354,"▁KNOW":10892,"10":2333,"46":9703,"▁episodes":10637,"Im":11623,"ant":1177,"▁Canadian":5039,"▁News":5658,"cent":3793,"earch":8017,"rian":8612,"acks":9780,"▁Agreed,":10871,"▁day,":4879,"▁bum":9158,"liv":7499,"▁spoil":8013,"ʒ":220,"ily":1840,"▁chang":1907,"olf":4851,"▁(C":9840,"▁kid,":9541,"☭":685,"▁BA":10995,"▁cave":11498,"ord":1681,"▁kicking":11814,"▁friends.":6986,"▁fuel":6488,"aaaa":4938,"▁ag":1325,"ă":171,"▁rare":6545,"icul":3255,"▁reasons.":9890,"▁runs":5753,"lect":1919,"ş":190,"▁craz":5161,"uous":8274,"▁coun":4616,"▁DID":10151,"ώ":376,"▁living":3090,"ace.":4688,"̷":280,"ibility":4048,"▁married":5603,"▁chance":3457,"ve":1063,"▁\"":1137,"▁ticket":7227,"13":3967,"_a_":7538,"▁Word":7948,"▁cars.":11644,"じ":747,"­":108,"▁Int":3893,"▁summ":6693,"▁Lond":8967,"pper":9083,"⌘":601,"t=":7505,"▁&":1267,"▁topic":6413,"ook":1276,"▁Rock":6746,"▁type":2871,"ists.":5360,"▁ham":7943,"▁holocaust":11594,"▁pizza":7648,"▁Government":7625,"▁submiss":6644,"▁somet":1440,"ities":2767,"▁personally":4833,"▁agree,":5963,"▁display":5971,"▁Ind":3080,"▁casual":9970,"▁Mr.":5236,"▁are,":5761,"▁client":8386,"▁writer":10740,"▁younger":8896,"▁\"th":11004,"▁pass":2357,"▁light.":11895,"▁touch":3827,"▁care,":10338,"▁escap":11470,"▁everyday":8261,"▁logo":9967,"▁$50":8717,"jpg":2127,"▁Learn":10606,"▁Republicans":5442,"▁advanced":9779,"▁neutral":11927,"-based":8468,"retch":7156,"exist":10804,"▁hour":2291,"▁tast":3170,"ving":1490,"▁nut":3791,"▁Li":4945,"are.":8938,"oon":4151,"endment":7725,"th":1127,"oose":3200,"▁everywhere":5209,"ed!":7970,"▁As":1828,"▁riot":11002,"▁value.":11357,"▁ring":6706,"▁polls":11796,"▁amendment":10251,"▁days":2956,"▁before.":5017,"▁answer":2893,"cul":5665,"▁mis":2686,"/3":6892,"▁predict":7369,"¦":103,"▁backwards":8478,"▁note":5281,"uman":6019,"▁attack":2804,"sp":3028,"4.":4502,"▁novel":6641,"ther":1366,"▁laptop":4956,"▁curious.":10923,"es.":1290,"▁downvot":3536,"lease":2028,"▁Lets":7077,"▁max":6836,"cially":2529,"/P":7797,"ply":2500,"̻":284,"▁employ":3615,"cess.":8024,"▁portray":11326,"-D":6911,"▁expecting":6193,"▁+1":9758,"▁allowed":3662,"▁resist":6949,"▁exam":5128,"](":1339,"▁apps":9450,"▁version":3046,"▁sitting":4807,"ø":162,"ю":429,"▁him?":7234,"▁etc...":11340,"▁Apple":4093,"▁miser":11658,"▁k":1135,"▁100":2593,"ience.":11840,"█":637,"▁racism":8030,"▁missed":4124,"▁gi":2674,"▁AT":5324,"uce":7858,"walk":11215,"▁Im":3533,"▁multiple":5138,"▁Their":5716,"▁scr":5914,"̤":261,"ics.":3660,"▁freak":6009,"ces":2013,"▁vac":6536,"▁Gre":9812,"▁liberals":10038,"prise":11781,"▁leaving":6182,"▁arm":3267,"▁twist":9231,"使":853,"stream":6370,"地":877,"▁pe":2805,"▁scream":10888,"tw":4826,"И":387,"▁horrible":4285,"▁You'll":6161,"▁Afghan":6830,"▁advantage":7914,"▁horse":7129,"ance":1647,"!**":9009,"▁welcome":6618,"cl":1659,"▁earth":4133,"upload":6599,"☞":681,"к":410,"▁techniqu":8630,"▁2.":3209,"▁tongue":10625,"%2":4109,"è":147,"▁Inde":5990,"▁jealous":10795,"▁hitting":8212,"♞":701,"▁else's":9664,"ì":151,"▁names":5773,"ا":473,"ure.":3337,"▁well":1558,"ma":5521,"ashed":8522,"olog":1957,"▁language,":10697,"▁attached":11087,"∆":580,"▁today":2771,"▁hell.":7581,"▁cult":3158,"▁else.":4724,"'s,":7848,"▁def":1699,"▁sweet":5699,"▁spend":3341,"▁downvote":4663,"▁Actually,":3290,"▁Le":4013,"er.com/":7561,"า":540,"▁perf":2344,"▁bik":9079,"▁ANY":7315,"black":9361,"erved":9938,"▁voice.":11834,"▁et":11835,"mon":4918,"-m":2718,"▁disappoint":5237,"▁strip":8282,"▁Earth":5087,"▁extreme":7837,"▁offense":9275,"ump":2397,"▁mentally":9616,"▁descri":3339,"▁teeth":8731,"ass":1455,"▁comparing":9454,"▁honest":2889,"▁clip":7043,"▁vs":6672,"▁ru":2959,"▁bud":5705,"cy":2495,"▁challenge":9896,"▁prom":3373,"▁situations":10980,"▁forced":5110,"ice.":2324,"▁product":3101,"▁happy":3350,"▁raised":6969,"▁Federal":9118,"Edit:":10940,"☆":675,"▁Look":2789,"ens":1498,"▁call":1556,"▁san":7603,"▁article.":5062,"i-":2336,"▁wood":6119,"▁parties":6816,"▁cos":10168,"▁[f":10867,"▁games":3199,"▁either,":8376,"oke":4009,"▁old.":5552,"▁analog":6278,"▁Mich":5385,"▁save":3709,"▁traffic":6684,"order":7042,"gu":3847,"IGHT":7622,"▁wip":10169,"▁idiotic":11324,"▁Live":10366,"▁impressive":10480,"▁please?":11279,"示":943,"▁Test":11854,"▁speech":4038,"▁Ham":5295,"icious":10976,"▐":640,"im":1094,"attle":5247,"‘":552,"▁quote":4506,"dit":1527,"▁With":3174,"▁pulled":6401,"▁simple":3285,"▁guys,":7783,"www":8855,"▁abandon":10641,"42":11098,"▁themsel":2883,"ortion":11901,"raft":4545,"▁forum":6622,"▁cyn":10315,"▁ol":9752,"els":3405,"ine,":4320,"▁economy":5207,"ment,":5152,"....":1789,"▁crow":5430,"umb":2046,"alk":2504,"▁downvoted":4229,"▁crowd":5852,"▁alive":6808,"▁somewhere":3695,"▁listening":6477,"'ve":1771,"_t":6845,"▁abortion":7179,"relig":9174,"aren":9796,"▁Quite":10537,"▁way.":3016,"▁stars":10659,"▁same,":10731,"▁FAIL":11716,"____":6086,"▁State":7917,"▁rif":9210,"▁playing":3120,"▁hide":5869,"▁followed":7694,"es...":11418,"▁descript":11782,"▁rom":9806,"▁expect":2401,"▁dut":8888,"▁agn":9815,"▁femin":9579,"ard,":9426,"▁far,":9767,"▁Em":7158,"▁somehow":4376,"▁otherwise":5163,"▁house":2844,"ت":476,"anch":6334,"▁Roman":10500,"▁russ":11990,"▁Fight":10531,"○":663,"▁logical":6104,"▁arrested":8684,"▁amb":7593,"▁atheist,":11577,"as":1049,"rif":5469,"▁---":10231,"▁storm":11352,"▁Tru":5574,"▁At":2414,"▁upset":7425,"▁engine":3788,"GA":10246,"whal":11922,"▁depend":6809,"ame":1262,"▁C#":9814,"mpath":7065,"▁3.":3875,"▁theme":9688,"no":3051,"ots":3375,"0000":6920,"▁ice":5848,"▁think?":10534,"▁hung":7672,"▁ac":1486,"▁physical":5524,"play":3292,"▁smaller":6500,"▁episod":6678,"▁we'd":6867,"▁MORE":11779,"▁buildings":10938,"▁bitch":3113,"comm":3219,"▁gets":2255,"'?":7210,"▁Face":7075,"15":3632,"',":5453,"ͩ":325,"wor":6786,"ense.":5751,"▁tact":7433,"Μ":337,"▁benefit":5640,"bar":5898,"▁initial":8530,"▁sports":8712,"▁choos":9074,"ata":10344,"▁significantly":10918,"▁mission":11007,"ats.":11670,"カ":790,"ว":538,"▁arguing":6468,"▁kidding.":10073,"▁believe":1746,"▁4th":10704,"▁cash":5143,"▁want,":8129,"▁bi":3706,"▁wall":3822,"▁equ":2552,"▁smell":4324,"▁billion":5191,"▁butt":4914,"▁side.":8059,"ums":9746,"▁BBC":8490,"▁setting":6191,"▁28":11333,"▁decision":5707,"ф":420,"18":4104,"▁how":1326,"▁older":5358,"▁Make":5871,"天":881,"▁upgr":6590,"▁normally":7529,"/S":7817,"▁model":4891,"▁nerd":5563,"ip":1376,"37":6144,"herent":6560,"astic.":8187,"▁*all":10852,"1":21,"upport":11813,"▁implied":11684,"▁liked":4117,"going":11844,"▁I":1022,"q":83,"▁hating":11172,"▁length":7741,"▁true":2677,"▁hits":8056,"round":7286,"▁proves":9180,"4/":8358,"an":1029,"▁custom":4019,"▃":633,"pe":1244,"▁eng":2872,"▁wont":7544,"tern":1622,"▁then,":4947,"lete":5304,"▁hardware":6020,"es!":8477,"▁vehicle":8844,"▁repl":3045,"▁ext":2128,"▁surv":4697,"̅":231,"▁girl":1871,"▁Nop":4995,"atical":9660,"▁victims":11132,"▁sign":2306,"▁anarch":7157,"▁pray":8526,"▁things.":4144,"▁*you":7305,"ald":4395,"▁causing":8929,"▁read":1483,"▁&gt;The":4789,"▁Fur":10234,"▁sight":10794,"▁rough":6813,"/12":11950,"▁wing":6444,"11":2192,"▁goat":9905,"▁seven":9251,"asion":5796,"ior":3355,"▁does.":5185,"mA":10238,"♪":708,"感":904,"](http://en.wikipedia.org/wiki/F":11558,"그":979,"peach":9411,"▁believe.":8924,"atch":1453,"▁(if":7906,"ott":2238,"̽":286,"▁Gore":9866,"▁subt":10029,"▁ensure":11266,"▁}":11665,"▁update":8032,"anger":3564,"▁songs":7577,"▁Facebook":8119,"especially":11776,"orm":1617,"▁unemploy":8350,"▁neighborhood":8537,"/comments/9":7691,"▁motiv":6832,"▁god.":7362,"▁work":1423,"▁Sam":8663,"ples":5123,"ari":2116,"▁official":5445,"▁sequ":6651,"▁deliber":10040,"▁for,":6718,"▁fix":3005,"▁unit":8900,"▁Photoshop":10779,"▁loved":5115,"▁Open":7047,"▁really,":5356,"會":923,"▁so...":10250,"▁heat":7885,"ream":2808,"▁400":10466,"▁amount":2979,"▁longer":3676,"▁Day":8294,"▁ob":1716,"▁serv":3050,"▁attempt":3666,"▁sides":7564,"▁experiment":8447,"That's":9278,"appropri":10733,"▁pin":9586,"▁shows":3748,"▁Yep.":8801,"▁Soviet":9061,"▁note,":9305,"▁javascript":11995,"▁sen":6634,"▁Should":4574,"AD":5223,"▁Africa":9393,"line.":5844,"▁20%":11750,"▁upvoted":5140,"━":604,"▁pleas":3551,"▁recurs":11360,"▁apolog":5006,"▁class.":7820,"▁disag":3084,"orid":7014,"rig":8430,"„":556,"▁gross":8515,"▁presum":10047,".S.":3838,"▁gr":1479,"▁wait.":10081,"▁door":4628,"▁were":1404,"▁[d":10920,"▁douchebag":6140,"▁&gt;T":8401,"▁AB":9191,"▁(as":6412,"sters":8503,"greg":10705,"▁poster":6963,"▁accused":11453,"▁like,":4941,"ן":457,"▁fly":5790,"▁Kn":7054,"▁pulling":8939,"▁subreddit":3112,"ntax":8749,"▁Seriously?":9766,"it's":5839,".com/w":11427,"▁dom":4396,"ished":9517,"abb":10774,"č":174,"x":90,"inst":5484,"ally.":6522,"▁Sch":7583,"▁turning":6664,"▁reci":8303,"urday":9293,"見":956,"▁take":1631,"ording":3857,"resp":7545,"′":565,"▁Dark":8407,"▁hun":6552,"▁(":1242,"_n":9832,"P.":6053,"pret":5675,"▁Europe.":11223,"claim":8099,"=1&amp;":11875,"▁unnecess":8494,"▁per":1588,"▁thats":3981,"▁features":8005,"▁google":3845,"▁murd":8687,"ae":9651,"▁[DOC_SEP]":1060,"AT":2305,"o?":6118,"OR":2830,"▁awful":6533,"▁inherent":8805,"arth":4262,"-time":9179,"space":9666,"word":3881,"ered":1898,"ild":1608,"▁diet":9173,"▁sem":4680,"ee.":9076,"▁fill":4184,"▁change":2456,"▁abstract":11953,"etic.":10648,"▁\"a":7339,"▁basis":7739,"▁Gal":11943,"▁hang":4086,"▁JUST":10340,"▁ignorance":8196,"▁kind":1711,"말":986,"▁Japan":4025,"▁Vist":5895,"ices,":10754,"regard":9721,"▁words.":7641,"▁\"we":8883,"▁La":7417,"̧":264,"こ":743,"▁Yes,":2201,"ם":455,"▁thanks.":6534,"SA":9097,"▁long,":9581,"":996,"2)":8895,"▁hence":10683,"uit":4858,"ze":3982,"▁accidentally":6791,"p":82,"▁table":7333,"▁attempting":10390,"▁choices":10882,"▁intent":8935,"ur":1156,"ustom":3752,"▁After":3743,"▁bringing":7925,"▁implying":9114,"ce.":1813,"ams":5740,"▁ownership":11272,"▁Pres":4129,"▁had":1389,"s.com/":3809,"┴":614,"90":4223,"nic":7100,"▁kids,":8671,"fast":9026,"▁:-)":5125,"せ":749,"▁multip":4819,"thern":9987,"tv":11078,"▁Lear":8981,"▁\"M":4075,"▁purely":10530,"▁com":1176,"87":6583,"▁candidate":6344,"B":36,"▁concerned":7331,"▁lives.":9719,"▁shark":10603,"_H":11883,"▁industry.":11888,"▁that?":2788,"▁everyone.":8798,"▁chosen":10784,"▁price":4155,"▁amazing":4044,"/l":5950,"▁ignored":9801,"⠕":722,"▁hop":3521,"▁Sorry,":4461,"▁1:":8158,"▁Sad":5599,"▁acknow":9223,"▁you're":1459,"▁resp":2171,"▁directly":5216,"▁read.":6745,"▁matters":9094,"▁progress":6192,"ified.":11446,"▁iPhone":6433,"tml":10108,"ap":1204,"▁emotional":9123,"ą":172,"HAHA":4601,"▁bother":4530,"▁constantly":6747,"▁Might":8084,"え":736,"▁since":1952,"ance.":3420,"▁special":3821,"▁==":8915,"▁blew":9363,"ُ":503,"oint":2975,"craft":8705,"͢":319,"▁dict":7294,"ô":159,"▁tatt":7768,"▁3rd":7189,"▁Christianity":8347,"ž":197,"-hand":9995,"▁Head":11649,"▁deli":5066,"84":5589,"▁Twilight":11651,"▁prison":4985,"▁cour":1982,"▁avoid":3973,"feature":5989,"ates.":5329,"aby":7612,"▁what,":7647,"▁why,":10540,"▁Vi":11090,"▁exagger":11657,"▁D":1169,"rd":5517,"AMN":10411,"▁&gt;B":7446,"um,":10374,"anced":5933,"ynam":8682,"▁There's":2493,"on?":9280,"othing":8328,"▁hit":2777,"▁Americans":3349,"▁pres":2157,"oms":9005,"ures":4474,"▁contin":4039,"ama.":5936,"▁So...":8549,"▁SS":9826,"▁again?":7237,"600":10131,"ing...":10791,"▁&gt;C":9909,"bust":10604,"▁gather":11061,"▁sugar":7221,"▁[W":7500,"▁Palin":5316,"▁aspect":7751,"ever,":3018,"▁firefox":8157,"▁carbon":9996,"-se":11893,"▁now.":2297,"acon":7368,"yle":3957,"▁Freedom":11535,"▁list.":7030,"▁demonstr":7511,"gramming":9549,"▁success":4373,"지":993,"ible.":5712,"▁gives":3738,"▁armed":9117,"rophe":10734,"▁deal":2706,"▁*\"":8190,"▁plays":7677,"ests":10717,"▁she'll":10902,"▁infer":10034,"μ":361,"est,":9038,"▁Br":3553,"▁election":5590,"ec":3434,"▁anymore":3441,"▁word":1778,"ong":1294,"inct":5894,"▁suspic":8637,"▁management":9555,"id=":4002,"enses":10061,"▁danger":4387,"▁hilar":6090,"bur":6249,"▁need":1436,"▁about.":4141,"▁He":1433,"point":5884,"▁attach":7666,"ails":8197,"▁pointed":6971,"▁break":2728,"urrent":8596,"▁sweat":10319,"ˈ":223,"RI":6479,"ize":1883,"▁large":2961,"▁(not":5794,"▁things,":6512,"use.":6802,"▁me...":7404,"▁Tor":7833,"▁taxp":9683,"θ":357,"▁diam":9807,"▁naturally":10738,"▁help":1909,"▁confusing":8990,"LC":10503,"empt":3033,"▁paying":3739,"▁supporters":8097,"ased":3428,"▁*m":7015,"etor":8655,"▁democrats":11148,"ry.":2791,"▁signs":8983,"uil":11365,"▀":630,"icrosoft":3667,"ί":349,"ess":1211,"▁friends":2766,"▁eating":4166,"▁techn":2864,"▁students":6198,"▁beat":3445,"З":386,"‽":566,"RL":6400,"▁game,":6861,"▁bible":6451,"▁cat":3328,"Un":7503,"▁monitor":7618,"▁based":2931,"▁minor":4832,"A.":4738,"▁youtube":6416,"▁from":1264,"▁section":6898,"▁wars":7856,"▁Russian":7969,"▁much":1416,"▁sch":1930,"▁butter":8367,"▁conservatives":9289,"▁virt":6870,"puter":9649,"ww":1210,"▁Down":3749,"▁discover":9900,"google":4056,"▁Whatever":7495,"▁childhood":10327,"o!":9529,"▁find":1630,"▁Me":3123,"▁released":7032,"▁up?":6427,"igh":1601,"▁bast":5090,"▁natur":8408,"-shirt":8438,"▁roommate":11622,"▁I've":1492,"▁redu":5417,"▁degre":6341,"▁flood":10722,"▁remember":2279,"▁$100":7174,"oll":2009,"imum":5482,"▁George":5875,"ource":4917,"ā":170,"▁web":3394,"news":10217,"▁irrelevant":8910,"ww.":9617,"▁military":3983,"▁Tot":7481,"▁frequently":10596,"▁better?":10824,"▁Nope.":7664,"ate":1190,"ß":138,"▁common":3115,"▁AR":11787,"▁disagree.":7208,"▁another.":9816,"a.":1639,"▁historical":10005,"▁transm":11089,"Reddit":6061,"os":1322,"▁EDIT":3106,"く":741,"▁said":1599,"▁sneak":11605,"AAAAAAAA":5522,"arcraft":9353,"ette":8210,"▁disturbing":11794,"▁co":1448,"ly.":1715,"set":5363,"▁bills":10337,"aser":7440,"卍":864,"▁catch":4115,"ility.":6109,"▁bo":2867,"aters":11481,"▁volume":11320,"स":521,"joy":2566,"ಥ":533,"▁popul":5897,"lord":9973,"▁Bible":6397,"▁enemy":10356,"▁shit?":10650,"▁degree":5941,"OP":4028,"▁\"G":4813,"▁Although":4935,"▙":646,"▁Nic":11413,"vention":10401,"▁80%":11523,"▁lots":4001,"▁plane":6690,"▁letters":8351,"▁dev":3413,"ists":2006,"▁also,":8221,"▁better":1641,"▁depending":8839,"▁Fix":8488,"▁food":2548,"▁chicks":8053,"▁moron.":9785,"▁over.":5819,"ロ":824,"-B":7299,"▁medical":5070,"▁hands.":10817,"youtube.com/watch?v=":2106,"▁conf":2170,"▁desper":8768,"▁Sil":8972,"▁argue":4927,"▁thread.":5851,"▁Haha,":7259,"▁problems.":7455,"▁National":9415,"▁ster":10753,"à":139,"↔":574,"规":957,"▁downloading":11455,"/2009/0":11516,"lock":6464,"ute":2240,"s.":1118,"▁bug":5450,"▁propagand":5843,"▁they":1155,"e":71,".jpg":2323,"et.":2937,"▁Ron":3065,"▁Well":1702,"▁stereot":6442,"ale":2646,"▁Thanks,":6627,"▁format":7654,"&amp;feature=related":8799,"▁room":2998,"▁but...":8911,"▁U":1312,"search":3004,"▁sle":8716,"-n":6067,"▁che":1683,"▁Ge":3803,"▁atheist":3839,"▁hands":4410,"▁pirate":9053,"▁favourite":9469,"▁suffering":9484,"▁Upmodded":9690,"which":10268,"ν":362,"ז":448,"▁guy's":7471,"▁Dou":11991,"懂":905,"atic":2856,"▁illegal.":9137,"an's":11118,"▁suppor":5478,"ividual":4080,".org/":1824,"▁important":2910,"▁attractive":7679,"0.":6228,"▁graphics":9461,"▁each":2486,"▁opin":2637,"-R":8421,"▁8":2227,"▁moving":4983,"ence,":9707,"▁Great":3915,"▁liking":11624,"ask":4041,"其":857,"他":845,"▁Bill":4834,"ful.":4183,"▁Bo":8619,"▁screen.":11807,"▁single":2702,"ax":2823,"44":7571,"▁grocery":10620,"▁goes":2721,"▁fox":8601,"/re":9101,"▁Agreed.":5850,"▁effort":4684,"be.":9044,"☻":688,"ia.":3786,"▁compat":10221,"▁WH":3828,"▁Heh,":11425,"▁anyway.":4135,"umin":9489,"▁started":2704,"▁didnt":7053,"/st":7393,"▁Jesus,":11359,"▁hyp":4256,"-L":8147,"Χ":343,"▁automatically":6567,"▁died.":11157,"ocol":6030,"▁AC":8873,"∨":587,"](http://":1343,"as,":4994,"▁face":2786,"apan":3630,"tle":5318,"ų":195,"▁interesting":3042,"▁applications":10854,"@":34,"ativ":7483,"raq":3573,"▁whom":8016,"▁competition":8569,"▁stayed":11303,"ト":808,"▁officer":8445,"ages.":5264,"▁Sunday":10089,"▁for":1090,"fere":1535,"oney":6356,"▁High":6483,"▁Israelis":8644,"▁Awesome":7200,"▁Asian":9149,"▁borrow":10771,"▁FTW":8262,"▞":651,"▁beats":10392,"ertain":2091,"ances":4233,"▁Interesting":7646,"▁[P1]":1035,"▁define":7482,"▁comput":2384,"ield":3166,"▁total":4511,"▁I,":7151,"▁healthy":7930,"▁owners":9883,"▁foot":3829,"▁houses":10285,"▁sense,":8920,"▁believes":7133,"▁scenario":11236,"UN":6506,"▁accent":8359,"s\"":3645,"▗":644,"ore":1307,"▁bullsh":3239,"&amp;s":6376,"▁chair":7873,"▁ought":9823,"▁God.":7501,"▁mer":6102,"A":35,"ied":2107,"▁purch":5351,"erer":10502,"▁times.":4925,"▁Chuck":11180,"▁crit":3656,"∑":582,"▁evidence":3186,"▁extra":3905,"rent":2286,"een":8994,"▁ali":9033,"▁aver":10517,"▁vot":2074,"The":2191,"▁investig":6923,"▁effectively":10156,"∈":581,"▁Party":10563,"rah":11093,"▁God,":6498,"▁career":9012,"▁rep":1972,"▁doctors":8593,"▁Den":8297,"most":2158,"ball":3559,"verage":3213,"ize,":11576,"▁xkcd":11898,"be":1508,"▁dog.":10031,"▁advice":5493,":/":1229,"G":41,"▁OP":4538,"▁long.":7652,"▁Saudi":11140,"0":20,"▁ind":2084,"▁Three":10614,"‡":558,"▁US,":7533,"▁FA":8298,"▁around.":5415,"▁enough":1780,"▁Oh":2051,"▁*The":8986,"▁whether":3306,"▁quality":4419,".html)":5178,"ologist":11105,"▁brain":3076,"index.php?":11396,"▁international":7360,"▁offend":8609,"▁bare":11666,"▁attacking":9349,"▁votes":5885,"head":2813,"▁alright":8322,"▁me?":4866,"▁hypocr":9404,"Λ":336,"▁insurance":4326,"▁afraid":4478,"▁subscri":6065,"▁it.\"":11647,"ers":1200,"▁spamm":9522,"bling":9225,"如":884,"▁wish":2501,"▁Ser":2743,"▁FR":11664,"ret":2340,"imgur":3003,"▁metaph":9837,"▁types":6449,"▁structure":9957,"oret":11411,"▁internet,":8576,"▁market.":9308,"▁asham":8875,"▁would":1184,"to":2579,"asing":5248,"▁2)":6858,"这":964,"▁ep":3151,"▁Internet":4240,"▁decl":5259,"▁spread":5345,"w":89,"▁community":4655,"88":5381,"leted]":1679,"▁own.":6708,"▁wanna":6005,"▁please.":5991,"ْ":506,"女":882,"bon":7387,"▁raped":7531,"▁boob":7568,"Н":391,"▁Sn":7653,"▁fraud":8288,"▁be?":8673,"▁yeah.":7812,"ng":1832,"ê":149,"▁ad":1550,"son.":3493,"▁second":2152,"▁coffee":5642,"ce":1148,"ably":1574,"▁failed":5912,"4":24,"▁question:":9068,"old":1886,"osp":4465,"▁paranoid":10134,"▁her?":10810,"▁let's":4557,"▁population.":11405,"▁known":3485,"▁dictator":11401,"▁Af":3638,"▁sufficient":10295,"▁stone":10746,"▁socialism":11014,"▁GUI":11786,"▁fit":4586,"rot":10624,"▁educated":9793,"athers":11879,"▁sne":9603,"▁floor":7844,"▁terms":5156,"les":1872,"oun":3438,"ʍ":218,"☑":678,"▁Python":6733,"▁tot":2385,"▁Bell":10616,"▁nerv":11960,"d.":9202,"22":4537,"€":569,"▁\"O":4439,"▁troll.":7573,"▁Thanks.":5701,"-year":6307,"▁music.":7643,"▛":648,"▁science.":8502,"ionist":9029,"▁magic":7285,"il":1161,"▁country.":4798,"▁naz":7372,"フ":814,"分":860,"▁easier":4118,"KE":4726,"▁rend":9449,"graph":9786,"予":839,"oop":2925,"▁officers":10579,"▁Health":11097,"▁reaction":6527,"▁capable":7165,"▁PH":6780,"▁*F":11637,"▁painful":10581,"▁meme.":11602,"未":926,"▁card.":11880,"ars":2068,"▁card":3535,"▁e.":11920,"▁bigot":8292,"▁whereas":10385,"▁particular":3426,"FC":8547,"▁music,":10182,"▁remo":3486,"▁apparently.":11896,"▁OK,":6609,"▁typical":6675,"gre":2969,"ical.":6905,"▁finished":7536,"▁opinion":3566,"s.\"":5060,"▁grad":4255,"chan":3703,"▁pra":10855,"▁security":5251,"▁never":1484,"ards":2953,"bert":2242,"▁sal":3330,"▁Quick":9420,"ourn":4777,"▁acqu":9037,"▁sea":9822,"▁valuable":11480,"▁back":1501,"▁honest,":9642,"ower":1965,"▁public":2440,"▁life.":3397,"▁effect":2650,"LD":6606,"aut":3102,"rary":8201,"▁home.":6513,"▁sounded":9953,"▁bird":6687,"▁DO":3279,"V":56,"̱":274,"▁...":1827,"▁won":1966,"▁\"t":4615,"▁inform":2879,"▁sorry.":7346,"▁fif":8853,"▁comparison":7986,"̏":240,"health":9035,"▁game":2092,"itted":3665,"▁Off":5890,"▁(B":10037,"外":878,"▁(N":7609,"reak":6445,"▁NYC":10756,"▁paper.":11987,"ux":6270,"▁No,":1964,"necess":7621,"▁clue":7985,"▁vacc":7670,"▁repost":10413,"▁rules.":11255,"▁artific":11824,"What":9868,"▁one.":2425,"▁streng":8948,"▁peoples":9260,"ulating":10389,"▁insane.":9972,"▁himself.":9176,"▁make":1414,"▁barely":6875,"▁Yahoo":11047,"or?":11226,"▁Excellent":11909,"▁ben":3382,"▁ways.":10259,"-":17,"▁imag":2571,"▁good,":5094,"▁WHAT":7060,"block":7348,"▁did,":6635,"port":1562,"day":1941,"▁Jo":9557,"▁Surely":8590,"▁generation":7155,"▁sill":7589,"▁infin":6186,"▁story,":8022,"▁versions":9770,"▁get.":9803,"▁news.":7569,"semb":10953,"ground":4362,"ains":3794,"▁mainly":10112,"▁upvote":4030,"ug":1687,"▁establish":6983,"▁increase":6211,"▁stom":8090,"_st":10508,"▁religions":9327,"Þ":137,"itled":9834,"-10":9668,"▁Vis":10367,"▁f":1030,"our":1280,"▁&gt;":1284,"olutely":3244,"▁sell":2923,"▁robot":8439,"iden":9600,"pdf":10600,"▁steps":11426,"▁wine":9443,"▁chop":10911,"▁work.":3251,"▁prim":4686,"▁Or":1863,"♔":691,"▁ARE":6187,"在":876,"▁tong":8451,"▁mone":1730,"▁fact.":7799,"▁hear":2302,"▁Come":5391,"▁measure":6557,"▁law":2032,"▁details":8611,"▁patri":9475,"▁Problem":11115,"▁shared":10916,"▁drivers":8128,"eps":10472,"▁But,":6271,"▁Kinda":11958,"意":902,"php":3708,"▁realize":2924,"▁electric":6045,"post":7242,"▁chest":11773,"ken":2396,"igned":9829,"▁territ":10048,"▁falls":9772,"▁helped":7141,"▁shame":5924,"▁password":6169,"▁work,":4958,"▁six":5448,"ERY":11723,"▁surprise":7644,"▁volunt":11265,"sm":9936,"ning.":9510,"▁[citation":10820,"▁unus":9927,"▁Was":3351,"▁TF2":10535,"▁disagre":4900,"▁Yep":4864,"▁supply":7204,"ice":1397,"▁condom":6574,"▁explod":10114,"╰":629,"▁court":4909,"eding":8385,"56":10244,"▁thorough":11397,"zy":2558,"▁boy":2994,"▁showed":6422,"▁Viet":10865,"▁wel":5429,"▁start":1671,"ś":189,"ented":4445,"▁christian":7950,"▁history":3698,"blogspot.com/":9407,"AS":3327,"▁sk":2206,"▁*f":6880,"▁dist":2461,"▁one's":6941,"▁sca":3496,"elt":3759,"ission":3719,"▁graph":4731,"可":869,"▁Bel":6315,"▁Plus,":8851,"▁made.":9195,"▁trivial":11154,"▁Steve":9325,"85":5650,"p/":8650,"▁Egypt":10644,"h.":3203,"▁Cong":4490,"▁math":4912,"wh":1914,"▁healthcare":5702,"▁Christmas":8057,"▁Wh":1207,"▁it,":1800,"▁Dem":3450,"tain":4207,"▁ruin":7020,"_C":7996,"obucket":10209,"expl":10460,"▁photoshop":8040,"▁risk":4590,"in't":5862,"▁Rush":10802,"stick":11937,"uth":2156,"▁chall":5978,"▁understood":6006,"▁capac":9247,"▁suggest":2724,"▁Care":7382,"eric":3949,"ime":2164,"▁strict":8840,"1,":6611,"▁happen,":11603,"▁Washington":9750,"itely":2676,"ither":3304,"br":2489,"--":2008,"bes":8533,"▁employee":11112,"uine":6859,"▁grass":11948,"eng":3965,"▁stay":3155,"ny":1632,"±":111,"athe":6241,"▁us,":7693,"▁med":2801,"▁manage":7426,"▁open":2365,"ở":546,"\b":2,"atever":2627,"▁recommend":4536,"▁double":4580,"ist,":4975,"ij":6966,"▁fingers":8578,"▁nor":4464,"▁level.":9209,"rict":6419,"▁Hum":9388,"ateg":5246,"▁bitch.":8227,"▁vague":10123,"▁Wonder":11345,"aker":11402,"etch":8384,"umer":7454,"▁with,":8442,"▁oce":9077,"▁fab":10668,"====":11421,"_W":11555,"▁[B":6280,"▁out.":2523,"▁Except":4005,"▁breat":5836,"▁appl":4952,"▁adults":10909,"cial":1912,"ery.":10693,"▁Indeed,":11963,"▁analogy":10345,"▁screen":3717,"wwww":8314,"▁staying":11521,"CD":7685,"ms":6133,"▁filter":8033,"▁teach":4303,"▁Ph":3582,"▁guessing":5919,"▁calm":10856,"▁easy":3091,"▁Japanese":5997,"陀":971,"ops":7336,"▁amazed":10506,"▁meme":5436,"▁geni":10171,"▁expl":1936,"▁stri":3818,"▁Hmm":4224,"▁address":4266,"gorith":8513,"▁time?":6824,"▁asleep":10913,"▁letter":5388,"▁box":3297,"▁Liber":8416,"▁piece":3797,"▁IS":3223,"_p":5463,"▁information.":9669,"▁cheer":11832,"gt;":1269,"itch":2413,"](http://en.wikipedia.org/wiki/S":9841,"▁Sk":9460,"icles":4222,"▁While":3918,"▁hipp":8720,"▁porn.":9222,"▁taken":3386,"ĭ":180,"▁incredibly":5510,"▁str":1951,"▁guilty":6774,"ario":5934,"▁flash":5195,"▁CL":9078,"▁man!":10431,"▁finds":9334,"▁DC":10674,"ype":2547,"▁confused.":9435,"▁gov":8049,"▁thick":9733,"▁conflict":7605,"▁Up":2898,"▁vis":2980,"ent,":3733,"▁general":3295,"▁bowl":9930,"▁Israel.":7900,"黑":975,"▁decided":4078,"▁4.":5889,"▁*n":8473,"line":2624,"♦":706,"1)":7489,"](http://img":10973,"▁Think":5492,"oe":4068,"▁lol.":8835,"▁realise":9939,"...?":8396,"▁economic":5272,"▁weapon":5764,"▁cause":3179,"▁pret":4179,"▁Pe":6737,"▁offensive":8131,"hen":8962,"orld":3442,"&gt;&gt;":11815,"_you":10147,"lly":11795,"spe":11371,"▁*g":11780,"▁We":1607,"ility":2334,"▁v":1220,"▁Sy":6180,"▁wedding":11415,"▁*and*":10494,"▁line.":7418,"▁Ruby":10630,"▁bit":1735,"▁sens":3035,"▁comb":4235,"'":11,"▁PC":3798,"?v=":2095,"ia,":4417,"▁belong":5800,"▁successful":7239,"▁citizen":5587,"⠝":724,"▁ON":4642,"rief":7771,"EST":8485,"▁Eas":9440,"▁TV.":10569,"▁person,":7909,"▁Chicago":10671,"▁Obama":2040,"▁compens":11012,"▁driver":5831,"▁block":3989,"▁false":5190,"ubm":10026,"▁bog":11039,"▁alleg":9107,"TFY":5334,"ounds":3171,"▁rarely":7306,"67":7601,"у":419,"ices":3288,"▁true.":3416,"ole.":5293,"▁neo":9998,"▁penis.":10240,"](http://www.b":11110,"▁invol":3173,"PA":11271,"▁America,":7515,"AMA":11627,"se":1115,"▁editor":11860,"▁Ar":2535,"ist.":3088,"outhern":7903,"ick":1335,"ise":1870,"▁already.":6771,"▁not,":3969,"▁kiss":7486,"▁ph":1661,"▁force":3946,"iles":5303,"UT":4391,"▁Western":9396,"▁funct":9744,"▁Cheney":8627,"▁could":1401,"▁*is":5799,"▁substant":11058,"Д":384,"▁viol":3079,"aging":5752,"▁dirty":6818,"inating":7698,"▁death":2742,"E":39,"lish":2347,"▁Hill":4946,"▁Ben":8624,"cott":9028,"▁hardly":5801,"▁bits":10471,"▁thought,":10181,"yn":3628,"omy":10623,"▁signal":11954,"▁Th":1154,"aming":4784,"▁dangerous":5970,"▁odds":11104,"imdb.com/title/tt":8498,"▁supported":8361,"≥":596,"ification":5812,"▁mile":8811,"▁face.":6245,"▁Sen":7340,"▁grand":4108,"▁Isn't":3936,"▁wonder":2169,"▁opportunity":7610,"ght":1141,"▁ment":5418,"▁pound":8000,"▁many":1658,"▁reject":7249,"▁dish":7108,"on.com/":8111,"▁principle":9422,"▁\"W":2884,"▁Ne":3785,"▁Office":10454,"й":409,"理":935,"▁great":1773,"get":1833,"▁less":1958,"LE":3870,"nce.":4611,"etic":4340,"...\"":5077,"lfriend":3335,"▁sarcastic":7779,"▁lad":4246,"▁gu":1328,"▁market":2649,"▁EX":7990,"▁link,":9727,"▁whose":6087,"▁shotgun":9976,"▁correct,":10360,"▁Al":1678,"▁alph":11064,"͔":305,"▁TR":8918,"acy":2653,"▁programs":7497,"icle":1855,"aring":2770,"▁organ":3616,"▁you!":4923,"▁pages":6848,"▁voted":3529,"▁lot":1605,"▁wrong.":3069,"̛":252,"♙":696,"\u0004":1,"ilosoph":5126,"ass.":4195,"▁Show":6926,"▁defending":8414,"▁Link":8491,"▁Lad":8656,"▁isn't":1637,"說":960,"▁[M":5681,"▁downmodded":6138,"ah.":6915,"▁more":1282,"▁enforce":7728,"▁reli":8715,"LY":4922,"▁fro":8933,"▁ent":1865,"▁Karm":9321,"▁\"This":9749,"rap":4250,"own":1327,"reddit.com/info/":8534,"▁sur":2000,"osaur":8793,"▁dozen":9863,"▁6.":10052,"-a":6796,"▁not":1112,"͛":312,"▁AL":6977,"▁cruel":10185,"▁building":4728,"▁:-(":10582,"'re":1270,"▁me:":11239,"▁Dis":5980,"▁history,":11540,"▁retire":11797,"ein":8241,"▁party":3331,"▁thing,":4720,"▁socialist":9154,"▁convention":9988,"vot":1834,"back":4243,"▁other.":6395,"▁impress":3710,"):":7320,"▁repres":11553,"aving":3483,"▁Mario":10770,"dd":1266,"▁Israeli":5488,"man.":7761,"ό":374,"gh":1095,"real":5225,"C_SEP]":1059,"▁Q":2525,"▁Defin":7755,"▁bell":8038,"pelling":11374,"▁soap":9190,"▁http://www.m":11459,"ucin":6355,"](http://www.youtube.com/watch?v=":2658,"▁PE":10056,"▁tun":10647,"▁shirt":4865,"▁broke":5348,"▁but,":8247,"what":3454,"▁aud":4357,"▁ord":6927,"▁'d":10189,"ight":1324,"▁[this":3528,"▁annoy":3614,"▁Star":5221,"ont":1757,"▁susp":9899,"~":96,"ii":3578,"▁terrible.":11364,"ो":529,"▁regard":3834,"▁mir":5617,"ね":762,"⁄":568,"よ":774,"xual":4334,"▁lay":4635,"▁speaking":5089,"▁performance":7795,":**":8267,"leg":6105,"ir":1116,"▁jail":4579,"▁joke,":7955,"▁percentage":7963,"▁1,":9110,"eh":10682,"arians":7124,"▁heck":10242,"▁civilian":11183,"wiki/":1953,"en.":1602,"▁remote":7412,"▁swear":6657,"▁voters":9800,"▁bite":10278,"modded":3722,"▁Huh?":11310,"▁rap":2643,"Ѽ":432,"dr":7559,"▁Cr":5750,"▁action.":11332,"έ":347,"ribut":4570,"ning":2270,"▁dun":7650,"'s":1079,"▁tar":4756,"显":920,"▁piss":3276,"▁dude.":6319,"▁complet":2129,"이":992,"ח":449,"▁nic":8133,"▁Rick":10017,"O,":10226,"ヴ":826,"▁&gt;M":7919,"▁power.":7447,"▁rip":8679,"▁stealing":7516,"cohol":4423,"▁realized":4838,"▁witch":11011,"▁penis":4289,"ᄏ":545,"▁(al":10737,"...and":8453,"̩":266,"http://":1333,"how":2977,"rible":2793,"ions.":4261,"▁specific":4345,"▁replac":5473,"▁of.":5987,"▁datab":8519,"REE":11550,"OM":3142,"ifi":5461,"ulation":3078,"ough":1297,"▁someone":1587,"▁necessary":6189,"▁hill":9515,"▁wis":10679,"ै":528,"▁we":1122,"▁refere":3094,"▁reasons":4904,"▁groups":7118,"isp":5141,"▁Watch":6452,"aked":4355,"▁transport":8496,"els.":10437,"▁process":3699,"▁Plan":10907,"”":555,"▁loves":6643,"♗":694,"▁agend":8078,"5/":8398,"▁invest":3789,"▁forever":7103,"▁shut":4352,"▁Further":11551,"e's":10915,"X":58,"▁switch":4125,"ikipedia":4280,"▁potential":6139,"̕":246,"urope":3362,"▁somebody":4293,"▁Tax":11253,"a.org/":11630,"▁Note":8140,"┐":608,"ED":3246,"▁fur":4123,"▁Dr":5162,"We":10872,"▁age":3842,"▁dif":1606,"▁[http://":11867,"▁responsible":5199,"▁latter":9512,"ver.":4333,"▁disease":9925,"\"?":2825,"▁considering":4997,"▁informed":11668,"▁gent":8667,"▁&gt;H":6571,"▁great.":5625,"▁wait,":6203,"alin":9178,"▁sympath":7465,"▁2nd":7758,"▁raising":11904,"▁involved.":10570,"▁alcohol":4793,"▁lesb":8721,"▁sil":5456,"itut":5457,"▁keep":1878,"lt;":2679,"▁Best":5549,"-4":7944,"imageshack.us/":9755,"▁supporter":9761,"▁I'm":1233,"xt":1638,"ledge":4467,"▁toilet":5736,"^":64,"0]":1040,"▁worth":2373,"EA":3425,"▁Nor":5050,"▁hilarious":6797,"▁PR":6052,"▁books.":9648,"▁pipe":9919,"▁CR":10202,"▁birth":4203,"airs":10272,"OTH":10335,"▁sand":4867,"▁compress":10346,"▁suppl":10891,"▁years":1758,"ition":2019,"le":1053,"▁my":1160,"buntu":6386,"ly)":11831,"▁retail":11754,"▁hates":7206,"IR":5255,"▁@":8323,"▁wasting":9215,"▁gal":11030,"▁entertainment":11976,"gun":5584,"▁blowing":10661,"itions":6682,"▁autom":4543,").":1536,"lay":9565,"▁members":5709,"能":952,"▁are":1117,"▁Work":9920,"▁typically":8959,"▁empt":6668,"▁bucks":8828,"▁reward":9213,"▁SN":10456,"▁discount":11621,"h":74,"▁Awesome.":11503,"ell":1285,"▁you've":2701,"▁gold":3980,"▁care.":6218,"▁alone":4119,"▁factor":8360,"▁developing":11409,"▁Troll":11857,"�":1000,"▁System":11999,"▁pal":6952,"▁coc":11066,"put":3685,"▁without":1867,"info/":6782,"_on":10975,"▁hors":9265,"▁\"Oh":11398,"▁ro":1626,"▁less.":8692,"▁tried":2691,"▁im":1406,"▁place,":8814,"▁hard":1751,"▁confus":5787,"÷":161,"▁scientific":5677,"▁ant":2555,"/200":3846,"▁Constitution":7546,"bel":4824,"aining":3513,"▁trust":3942,"▁window":4926,"ince":1756,"▁ate":8268,"▁bad?":11903,"ガ":791,"▁someone.":11777,"̝":254,"▁Pop":10723,"▁Exactly.":6340,"▁unlike":5913,"▁You'd":6251,"▁high":1786,"cture":10280,"▁view":2678,"▁abs":2539,"▁obsc":7553,"̮":271,"▁log":2609,"▁instead":2264,"은":991,"vel":1784,"▁proof":4116,"▁file":4339,"lt":6462,"▁dou":2137,"▁soldiers":8103,"water":9580,"▁categ":7389,"erv":2476,"▁emer":7762,"▁bust":8114,"ead":1902,"▁takes":3169,"sc":3621,"▁activ":5314,"▁corrupt":6059,"rec":11337,"▁purchase":8763,"-be":11363,"▁modern":4792,"men":5619,"เ":541,"ID":3388,"ruct":3882,"▁needs":2633,"▁fucks":9942,"arge":9128,",000,000":8912,"▁dynam":10379,"ド":809,"ca":1277,"▁Big":5277,"▁phot":2713,"▁asked":3346,"ude":2269,"gress":3541,"▁century":9635,"▁semi-":10380,"50":2615,"ion.":1598,"atory":5104,"▁inflation":10763,"▁cup":5967,"▁destroyed":9598,"zilla":10803,"▁want":1359,"▁counting":11443,"IN":2004,"cient":4245,"▁dogg":10546,"▁Cop":10381,"͊":295,"por":2554,"▁Linux":3750,"▁local":3832,"nc":6100,"edit:":9940,"्":530,"▁similar":3086,"▁weak":5057,"iat":9908,"▁adjust":10299,"s...":3631,"EEEE":5745,"▁sexually":11108,"iny":3906,"ations,":9269,"▁Jew":3027,"▁rel":1643,"▁input":9906,"ention":1967,"-8":7140,"▁trouble":4576,"ahoo":7061,"▁crush":9843,"ion?":6647,"▁right.":2832,"▁'h":10386,"▁you.":1823,"▁Step":5969,"▁child":1984,"ͮ":330,"pro":2578,"enty":3622,"▁21":7524,"▁experience.":7547,"▁smoked":11091,"▁her":1472,"OT":2381,"ines":2490,"▁bubble":8603,"▁advoc":6306,"▁literally":5357,"▁la":1569,"▁headline":5413,"▁Ap":5824,"▁H":1133,"esis":8666,"▁Afghanistan":9696,"▁dust":10055,"ology,":10059,"ative.":11000,"▁m":1025,"alib":11027,"▁require":3361,"▁dog":2659,"▁Use":6697,"ter.":4818,"▁mind.":5271,"▁ones.":7405,"▁movies.":9632,"'d":1804,"▁away":2056,"▁hardcore":10444,"▁cont":1514,"AAAA":2981,"▁mut":5646,"pell":5317,"as.":3682,"/tt":8441,"cies":5826,"'.":3519,"▁Women":7522,"▁'c":9626,"▁volunte":9929,"BS":9984,"▁uses":3902,"ts":4521,"inem":7414,"wood":6372,"▁form":2379,"▁him,":4828,"ipe":5501,"▁Australia":6886,"t;":1252,"▁John":4132,"▁24":5591,"だ":752,"▁Second":5942,"▁scared":5956,"▁tem":4782,"y":91,"▁decis":6727,"????":7667,"index.":7094,"▁nose":8163,"iate":9152,"住":850,"▁attacked":9643,"▁role":7680,"̳":276,"管":947,"▁salt":10188,"▁Mike":11199,"ates":1864,"▁$":1764,"aq":8460,"ome":1144,"▁stance":11216,"▁tick":4795,"▁desert":10334,"/c":3098,"amp;":1742,"▁results":6003,"o-":4778,"▁uni":2836,"40":3503,"go":3277,"▁Mine":8004,"▁answers":8382,"Q":51,"▁Smith":9458,"▁multi-":10739,"s).":9724,"д":404,"EE":2622,"ement.":7951,"ノ":812,"▁women":2215,"uuuu":6593,"▁Upvot":10941,"▁feed":4581,"▁\"K":11119,"mark":4788,"ה":446,"▁neg":3689,"▁defense":6070,"rypt":8639,"▁eats":11441,"▁1/2":11138,"▁equally":8089,"▁iPod":9577,"▁deliver":9842,"▁\"No":10441,"▁inn":4755,"▁spending":5402,"▁\"no":9684,"ra":1342,"▁involving":11805,"▁example.":8101,"▁decent":4554,"▁jack":5390,"▁Interest":5349,"▁[J":10709,"nce":2104,"▁(s":4462,"▁Libert":7798,"▁reach":5051,"▁thre":8672,"▁Go":2590,"min":9500,"▁happen.":5428,"uper":11127,"▁jumped":11341,"ͤ":321,"4,":10632,"▁believing":7928,"▁ec":11802,"fortun":3421,"edd":6768,"▁psych":4534,"▁must":2010,"core":7127,"FW":4631,"ighb":4408,"▁trip":6318,"▁mood":10539,"clus":4126,"▁requ":2420,"▁controvers":9583,"▁today,":8862,"▁usually":2739,"th,":9604,"▁forgot":4110,"▁option.":10307,"▁explo":8066,"ey":3168,"/or":6229,"▁guilt":8737,"▁About":7971,"▁RA":11686,"∃":579,"▁your":1168,"▁Get":3321,"▁water.":6783,"▁Please,":10216,"tt":1131,"▁sy":1753,"img":2503,"▁curi":3583,"▁in,":5282,"▁Post":6621,"▁except":2899,"▁sue":8968,"▁facts":6012,"▁Gree":9141,"▁stuff,":7923,"amed":7349,"▁spe":1525,"▁issue.":6084,"▁Point":9451,"ed,":1685,"ks":1926,"▁Russ":3753,"▁=)":8263,"▁saying,":8869,"▁water,":9233,"▁appropriate":6333,"az":1809,"ows":1923,"▁taxes.":9573,"▁minimum":7162,"▁fast.":10193,"acs":9375,"▁Dub":10400,"▁sentence":4673,"▁Certain":11221,"▁energ":11244,"ravel":11260,"▁companies":3962,"▁crisis":11852,"rong":5968,"ense":1932,"ath":1660,"▁proud":5939,"▁bull":2534,"ics,":8217,"▁war.":6582,"▁case":2564,"▁guys.":7128,"F":40,"us":1061,"▁ide":1749,".html":2972,"▁iP":4610,"▁again.":3252,"ɡ":208,"▁OH":7466,"mber":7549,"▁they?":9193,"▁disgusting":9670,"AskReddit":9882,"▁notion":11018,"▁gre":2968,"▁1)":6108,"lm":5940,"▁larger":6514,"enomen":8681,"▁sex":1915,"▁in.":3876,"▁logic":5117,"▁pun":2794,"Ò":128,"▁prec":6873,"▁kick":3778,"view.":9560,"▁Stud":10162,"▁past":2630,"̺":283,"ulf":9337,"▁southern":11578,"ference":6660,"▁religious":3383,"요":990,"▁curious":5113,"97":6584,"▁something":1475,"vir":4290,"iven":5601,"html)":7697,"▁apartment":9254,"▁ends":6957,"▁80":4727,"▁solut":8699,"apped":5193,"▁THIS":5955,"▁\"How":11010,"▁Carl":11907,"▁charge":5033,"▁\"p":3953,"您":900,"▁officially":10473,"▁delete":7884,"▁mol":10984,"▁movie.":5286,"▁often":2929,"▁subst":5542,"ak":1481,"▁jesus":8648,"ating":1696,"▁subs":4172,"raw":3523,"evit":8651,"ries,":10146,"▁tiny":5935,"alo":6439,"vin":8762,"▁yesterday":6326,"上":831,"가":976,"ag":1167,"▁oft":9418,"▁yes":3207,"▁fr":1223,"▁Israel":2204,"girl":9156,"▁engineering":9610,"pal":10878,"ound":1318,"▁sane":11585,"▁av":2618,"▁fasc":5632,"▁hook":5267,"DE":9452,"ascript":8271,"▁CA":9922,"van":10963,"▁phone.":10958,"▁ke":1633,"▁burn":3650,"▁baby":4152,"ping":4549,"▁strength":10778,"▁Hey":4433,"▁Always":9637,"▁couple":2902,"▁surpr":2814,"▁impeach":11133,"ift":3671,"▁truth":3407,"▁fed":4304,"ा":523,"▁itself":3336,"▁TIM":11679,"▁chick":3141,"▁Scott":10430,"▁orgasm":10110,"▁UK":3836,"▁going":1467,"ion,":2474,"le.":2161,"▁accident":4088,"▁mill":4314,"add":4482,"▁der":6205,"▁slave":10562,"▁snip":11473,"▁hu":2776,"▁condition":7718,"▁policies":8738,"▁chicken":6328,"udes":8069,"▁mail":5808,"▁refuse":6266,"▁excellent":6283,"roduct":10966,"υ":370,"▁Trans":8232,"▁IR":8916,"▁\"It":11490,"▁miles":6178,"▁hat":4654,"▁disapp":4770,"▁execut":6215,"▁(d":7800,"͜":313,"▁6":2118,"1]":1034,"▁Unt":7519,"▁Glad":8864,"▁Fact":9502,"▁gam":2109,"▁Cool":6696,"▁forb":9759,"▁aff":2838,"▁here:":8035,"▁Obvious":9493,"▁sav":10520,"▁Veg":11505,"orpor":11572,"▁green":5435,"▁Unfortunately":7704,"∂":578,"bow":8788,"▁became":5922,"igh*":10718,"▁accompl":7175,"▁ident":4504,"care":4632,"▁dudes":11095,"▁fore":2873,"▁safe":5022,"▁whats":8669,"▁on.":3198,"Ծ":435,"▁end":1781,"▁picture":2198,"▁small":2339,"▁across":4114,"▁into":1503,"▁mentioned":4837,"▁NY":5157,"▁channel":7096,"▁decades":9918,"▁exactly":2278,"도":984,"▁ride":6314,"▁Such":9926,"ization.":8866,"▁issue,":11878,"▁Be":1732,"▁absurd":7543,"alty":8654,"▁car":1775,"▁compet":3955,"▁qual":4821,"iness":2507,"▁size":4457,"▁Xbox":10725,"▁I'":1138,"▁RP":10999,"UUUU":4385,"▁deleted":7810,"chool":5375,"▁patient":11311,"▁tal":1689,"s?":1548,"pen":5541,"velop":2613,"▁bail":5683,"ed\"":6486,"▁By":3691,"elect":8802,"'s.":5092,"hood":4743,"▁difference":2882,"ren":1970,"▁critical":8392,"▁perspective":8640,"▁steam":10842,"▁Hell":4127,"▁=":2093,"▁outr":6843,"▁Att":9273,"%20":5134,"▁comedy":9706,"▁banks":7437,"▁[this](http://":9773,"▁pool":7228,"gn":3992,"▁amounts":8226,"▁convin":6017,"▁unre":9345,"Ú":134,"▁pregn":5722,"stitution":5419,"a/":9322,"rest":3477,"ocal":6482,"▁3)":11293,"▁load":4055,"▁g":1048,"▁incred":4358,"▁book.":6402,"known":8707,"▁Edit":2536,"▁color":4965,"reddit.com":11356,"▁twitter":9732,"yond":4747,"▁anything,":6002,"▁We'll":8729,"aught":6628,"inter":6517,"▁owns":9414,"▁silly":5769,"ter,":7223,"▁is:":7278,"▁price.":11955,"▁etc":2392,"▁meant":2762,"▁extremely":4736,"down":5299,"▁Tell":5150,"▁deser":5529,"高":973,"-E":10010,"y,":1493,"▁necess":3381,"व":520,"roc":5678,"▁lord":11331,"agan":7926,"▁Feel":11528,"▁\"s":3310,"▁domestic":11229,"▁pic":5200,"IM":4868,"▁reason,":7823,"ך":452,"omp":10291,"ated.":4034,"▁talent":10853,"▁iTunes":11084,"▁Book":11136,"▁Who's":8882,"▁keyboard":5566,"asses":7338,"▁dropped":7169,"ल":519,"▁license":6480,"▁reddit":1573,"▁shouldn't":3066,"▁pir":4772,"▁sport":5257,"ept":7056,"urope.":10510,"zer":7308,"▁resort":10000,"▁victim":5131,"▁next":2211,"▁decide":4910,"▁bound":8531,"▁standard":3586,"▁main":2764,"▁standing":5992,"å":144,"sec":4247,"▁something?":5643,"▁required":5234,"▁[The":6762,"one*":11741,"▁citiz":3737,"▁OMG":7376,"▁explains":7869,"▁nipp":10813,"▁him.":2920,"↑":571,"pr":2017,"▁also":1595,"▁scre":2383,"▁sugg":2722,"ev":3537,"2/":6305,"▁No.":3678,"▁prime":11149,"cies.":11887,"mart":7420,"▁stable":11631,"愛":903,"▫":656,"93":9723,"▁clothes":8167,"▁45":8819,"▁enjoying":10645,"▁office":4647,"cd":5068,"▁strongly":9867,"ota":10983,"▁Kill":9130,"。":728,"▁fing":4286,"▁Sim":4790,"ption":2860,"ξ":363,"▁bad.":4046,"blem":1700,"▁i'd":7657,"▁plant":6240,"▁bullet":8015,"ors,":9977,"☣":684,"awg":10524,"‎":548,"ast":1274,"̌":237,"nox":11475,"▁personal":3470,"▁spl":5585,"bin":10658,"ifically":4638,"▁projects":11575,"☺":687,"▁iPh":5652,"TC":10699,"▁rein":11308,"▁guess,":11699,"▁starting":4691,"▁infl":3929,"▁bone":11676,"▁embed":11570,"▁mouth":4160,"▁fre":2130,"▁telev":7287,"ons.":8307,"nn":6604,"▁hus":6197,"▁happened":3048,"▁dating":7749,"ical,":10751,"▁prov":2690,"▁faces":11804,"gin":2411,"YP":11220,"rigg":11571,"▁Commun":9294,"▁Scientology":11055,"▁James":10227,"fore":1580,"▁lawy":5634,"▁solely":11916,"͟":316,"▁buying":4425,"▁helpful":10689,"▁asking":3368,"▁examples":8136,"▁authority":8234,"▁\"be":11731,"▁London":11973,"▁hurts":10368,"▁clearly":3494,"▁LI":6262,"▁ra":3418,"▁commer":5053,"▁ridicul":3538,"'S":5694,"▁gee":6177,"▁Trust":10424,"▁copies":11760,"▁computers":6763,"▁he'll":6561,"p.":5565,"ution":2030,"cle":3867,"▁flaw":6390,"▁Glenn":8428,"」":731,"ying":2479,"▁Washing":7897,"▁originally":8027,"▁fellow":6568,"▁bom":9476,"pp":1271,"▁tri":1927,"▁hor":2667,"▁consequences":10887,"▁uncon":11689,"▁Techn":7999,"▁stimul":11515,"♚":697,"▁culture":4823,"image":9612,"▁virgin":7198,"▁Wall":8745,"ail":1507,"▁points":4015,"ront":7456,"▁lie":5407,"行":954,"▁2008":7934,"▁NP":10864,"▁offic":3121,"▁subscribe":11361,"▁together.":7442,"▁effects":7635,"ë":150,"▁ar":1301,"ory":1642,"▁ya":5780,"▁*that":7092,"ERE":6093,"war":6800,"C,":8254,"ern":2412,"▁guy,":5974,"▁office.":8854,"▁sist":9198,"uff":1860,"▁ach":6223,"avy":10197,"ader":8517,"▁horror":9854,"▁Rich":7266,"▁spir":6819,"text":7784,"▁offended":9192,"osphere":9556,"ح":479,"仅":844,"▁qu":1374,"▁Fl":3634,"▁!":4705,"▁linux":6126,"☢":683,"?":33,"▁enough.":4681,"▁bot":6025,"С":395,"oof":3047,"▁collapse":9955,"▁brainw":11911,"ers.":2253,"П":393,"▁Ma":7429,"▁think,":8225,"▁Ad":3800,"▁3:":11065,"▁[D":6663,"▁surface":11314,"▁yeah,":3505,"▁Probably":4477,"そ":750,"ょ":773,"で":757,"Ҩ":434,"▁mob":7055,"!*":7570,"▁UK.":11938,"▁confirm":5920,"▁fair":2473,"](http://www.reddit.com/":7557,"▁half":2482,"▁lo":1350,"▁scri":5311,"mind":7839,"♕":692,"stand":1803,"▁anal":3780,"ages":2168,"▁pap":5786,"▁cele":6222,"▁Str":8028,"▁rocket":8079,"▁string":8118,"▁elsewhere":8199,"▁hes":9383,"▁Park":7580,"again":11756,"ethe":11947,"▁does":1315,"vide":5109,"_the_":6000,"▁Okay,":6313,"▁Over":7517,"▁opinions":7619,"▁account.":8698,"▁addict":7413,"▁Dog":9257,"do":3059,"-F":8326,"opher":10797,"▁plot":8104,"ule":7659,"▁steel":11520,"▁con":1206,"ress,":10769,"ized.":8702,"liber":11660,"xx":10775,"so":1383,"▁plac":2550,"oring":6585,"▁27":11355,"イ":787,"PL":7052,"▁came":2394,"HHHH":4703,"▁oxy":11989,"▁selling":5817,"▁vie":2573,"use":1185,"▁making":2088,"▁10.":10414,"▁hug":7651,"▁sungl":10564,"▁nuclear":5149,"ing":1026,"mp":3925,"▁Exact":4331,"&lt;":5321,"ief":5378,"▁wit":7574,"▁dim":7763,"▁placed":11309,"▁mass":3215,"▁girlfriend":3499,"▁test":2660,"ed?":2845,"▁Wasn't":9710,"▁walks":10765,"▁flu":5784,"҉":433,"▁latest":8561,"▁others,":11766,"duct":4287,"98":7291,"द":512,"▁ever":1656,"▁convince":7449,"olly":8202,"i.":3172,"▁family":3273,"،":467,"idence.":7397,"什":843,"ell,":9916,"▁Ol":11323,"​":547,"inf":4812,"ated,":7214,"▁within":3920,"▁Bad":7251,"yes":10022,"▁blowjob":11210,"▁insur":3855,"ּ":441,"▁words,":7002,"▁interesting,":10933,"з":407,"Ë":123,"▁food,":9199,"ost":1765,"igg":2792,"▁dip":11170,"▁quit":5883,"▁'b":8691,"change":6510,"iday":6742,"▁Almost":8833,"<unk>":0,"▁bugs":10618,"▅":635,"up,":7428,"▁List":9928,"L":46,"▁seat":6719,"▁Alright":10568,"▁HIV":11367,"▁acc":1714,"▁freedom":4003,"▁A.":11464,"▁Haha":10692,"▁such.":11548,"▁cool.":5335,"ault":2824,"▁instrument":10758,"▁plan.":11851,"▁tends":10243,"▁dialog":10229,"ree":1446,"▁like?":8954,"▁thing?":7268,"-ch":7421,"ָ":440,"aa":2484,"▁use.":7350,"▁reddit?":7722,"b.":10391,"▁correctly.":11736,"▁cold":4522,"▁r":1173,"▁\\":6753,"テ":806,"▁button":5368,"▁short":2967,"umm":5958,"/h":4440,"ship":2773,"ological":5427,"▁may":1623,"▁article":2001,"▁crazy":3462,"▁obs":4568,"ening":6078,"inds":7273,"ek":5244,"▁much?":8171,"en.wikipedia.org/wiki/":2003,"̰":273,"▁thous":3869,"▁Rel":6089,"▁interface":10013,"▁trolls":11717,"▁Gold":7023,"modd":2949,"amp":1463,"▁He's":2588,"-C":4328,"▁Richard":10451,"▁consid":2154,"▁outside":3549,"▁[L":7394,"bo":2530,"▁you":1046,"▁propaganda":8064,"▁ok.":9291,"▁Again,":10320,"▁'re":10365,"▁First,":11500,"a":67,"edy":5404,"▁illust":10544,"▁ever,":11820,"▁FU":11869,"▁gall":7816,"▁kid":1754,"▁guy":1478,"ium":3600,"▁with?":10831,"▁Toront":11839,"▁There":1589,"ies":1382,"▁join":6014,"▁regulation":11417,"▁covered":6288,"▁weight":4791,"エ":788,"▁trash":7035,"che":2521,"▁person.":5581,"▁sold":3715,"berman":10493,"ak.":10549,"▁blacks":11234,"▁field":4605,"▁people's":5747,"▁sucks.":6225,"▁kids.":6960,"▁Coll":8100,"▁(\"":11329,"▁intentionally":11823,"▁with":1124,"▁tas":10032,"▁nonsense":10049,"▁wanted":2727,"▁gl":2139,"日":916,"▁killed":3443,"▁school,":7148,"▁Hel":7765,"ries.":7082,"▁&gt;You":8155,"▁WR":11845,"▁UN":5926,"▁argument,":11538,"▁map":5553,"rop":2246,"-de":9950,"▁nick":11135,"es\"":11440,"̑":242,"ole":2651,"▁iT":9011,"▁Reg":6580,"s)":4033,"友":866,"ad":1098,"▁reason":1705,"▁yes.":4388,"▁actually,":8281,"▁gave":3333,"▁pump":8194,"▁movie,":8507,"▁matter,":10276,"▁ones":2936,"ouche":9258,"▁somewhere.":10416,"IC":3594,"▁HU":10200,"▁inh":10635,"ather":1858,"▁repeat":8761,"▁ground.":11092,"uro":2987,"EEP":9229,"▁BE":5613,"▁young":3072,"▁Joe":7794,"fter":1597,"▁something.":3862,"▁attitude":8337,"▁certainly":3195,"bably":1648,"▁sl":1790,"▁{":8356,"▁ser":1614,"ided":3097,"▁space":3887,"▁gay.":8159,"▁game.":4361,"▁Co":6421,"▁oursel":8132,"$":8,"fe":2782,"▁ID":5686,"▁both":1991,"check":6659,"j":76,"▁eas":1980,"▁children":2698,"arr":3663,"▁mirror":7472,"▁Tr":3128,"-the":5778,"▁Must":8242,"ent.":2408,"ice,":3648,"▁scratch":8852,"▁mine":3904,"▁favorite":3605,"ु":526,"unt":2497,"▁:-":3714,"▁chem":6098,"▁smug":9240,"▁he":1109,"▁response":3996,"▁/r/":5003,"raid":4270,"▁wee":2159,"▁Bes":7224,"▁RE":6940,"orial":8539,"▁also.":10064,"ity?":7146,"▁vast":6382,"▁|.":11155,"▁candidates":8859,"▁move.":11941,"▁disc":2180,"**,":9644,"▁group.":11499,"ouse.":8538,"▁wanting":6717,"25":3951,"▁weapons":6296,"▁de":1187,"▁ap":2052,"rating":9813,"▁start.":10477,"intend":11203,"-d":2952,"▁quickly.":11788,"GH":10812,"▁wow.":10552,"irc":3068,"▁default":6097,"▁just":1171,"eg":1924,"▁politic":4161,"▁Thats":5629,"▁saved":6632,"▁fil":2455,"▁job.":4896,"um":1193,"为":835,"ust":1126,"▁Canad":2639,"on.":1916,"comment":2661,"▁will":1313,"▁creep":5028,"_in":7518,"▁ok,":7746,"kers":9912,"4)":10666,"esign":11685,"ential":4291,"▁History":11432,"▁She's":4613,"│":605,"ato":7231,"▁jerk":7357,"rep":8719,"_A":9136,"タ":802,"▁Home":9595,"-N":11849,"▁Reddit.":5406,"▁increasing":9197,"▁developed":8240,"▁worse":3309,"time":4957,"▁gravity":11301,"▁showing":5506,"▁*really*":8949,"Û":135,"▁op":1842,"▁Russia":6493,"▁suggestion":9768,"ort":1289,"social":11567,"Δ":333,"▁breaking":6572,"Ch":5416,"▁news":2601,"▁ele":4890,"▁leading":9898,"▁sometimes.":9917,"ʇ":215,"▁application":7879,"▁Who":2303,"▁world":1755,"fect":8085,"▁spent":4058,"▁style":5252,"▁about,":8117,"つ":755,"▁downvoting":8206,"▁issues.":8659,"▁2007":10912,"3)":11156,"▁americans":11419,"▁lone":10019,"▁\"P":4844,"ta":4047,"awk":8482,"▁funding":9562,"▁Next":6310,"▁speaks":10232,"▁obviously":3353,"ive,":4785,"is,":6122,"▁see":1396,"▁mean?":6658,"▁ge":6458,"▁FB":9833,"isy":11213,"▁clown":11412,"▁&gt;\"":6551,"print":8824,"ide.":3853,"▁virus":9241,"HT":6047,"cuse":11752,"▁terribly":10917,"⊆":598,"▁govern":9088,"shit.":9999,"content/":6698,"ountain":11640,"▁quest":1811,"▁mem":2223,"▁fuck.":7949,"▁computer.":8740,"▁rece":4164,"▁Run":11620,"agging":11583,"▁Fuck":2442,"デ":807,"\",":2426,"▁Had":8568,"▁Miss":8817,"▁Then":2263,"on's":9253,"▁don't":1212,"▁send":3724,"▁bank":3187,"▁occas":9480,"▁sa":1373,"▁bottle":7225,"▁bra":6143,"-on":10772,"▁*are":10279,"tw.":11100,"▁consequ":6947,"::":11214,"aign":4288,"▁micro":7894,"▁monopoly":11942,"▁sink":8571,"▁It'd":11258,"/comments/c0":11979,"▁hell,":9762,"▁suppose":4595,"▁drag":7036,"▁hur":7673,"uch":1399,"▁relevant":5960,"▁title":3512,"▁statistic":11910,"8.":5627,"▁silly.":9949,"en,":4481,"▁reached":11423,"▁sex.":6396,"▁genetic":10187,"▁30":3242,"▁programm":3409,"▁Just":1850,"▁raz":11445,"haps":2816,"ropri":4400,"▁concept":4143,"▁16":4523,"▁purpose":4786,"▁feature":3960,"olic":5059,"▁boring":7380,"▁confident":11591,"▁do,":4488,"▁sat":4100,"▁looking":2294,"/f":4453,"▁express":4608,"▁concent":9378,"▁[G":7975,"istic":3298,"▁olds":11704,"▁suck":2274,"▁manag":4931,"▁done.":5211,"▁fired":6202,"ised":2572,"▁solar":8616,"▁sees":8856,"ART":11479,"▁Mass":9740,"▁\"T":5031,"related":5479,"い":734,"▁Obviously":7024,"ind":1245,"io.":8045,"▁beer.":8787,"▁Prof":8937,"▁(i.e.":9745,"apers":11930,"▁mechan":6846,"ful,":7705,"8)":10485,"▁philosophy":9021,"▁huge":3188,"▁know.":3322,"▁wasted":10133,"▁apt":11959,"▁ghost":11619,"▁definition":4208,"l.":6798,"▁Maybe":2177,"▁prepared":9467,"▁(M":10172,"▁excess":9778,"▁always":1695,"▁foc":5170,"▁makes":1801,"▁while":1799,".\"":2049,"▁superior":6633,"▁crappy":7188,"▁believed":8543,"▁IT'S":10890,"▁style.":11568,"agic":9155,"▁greater":7318,"▁town":4429,"▁caused":5793,"▁legitimate":7520,"本":927,"▁hours":3274,"5.":6220,"▁points.":9201,"ION":5400,"shot":6181,"▁trying":1955,"ations":2064,"year":5034,"ien":3657,"▁reasonable":5596,"ool":1523,"▁&gt;O":8849,"▁*H":10317,"▁ups":11173,"▁lab":3584,"▁later,":11106,"▁States":5680,"▁Depends":8899,"ages,":9856,"▁currency":9874,"s.org/":10265,"ingly":6721,"▁author":3547,"ics/":7240,"▁po":1234,"̃":229,"ary.":3417,"▁Iran":4607,"▁nothing.":6125,"▁enlight":9082,"▁regularly":9962,"▁corporations":7972,"▁night":2580,"▁Will":4341,"▁cases":6564,"▁*st":10550,"▁consum":4456,"▁comfortable":8635,"▁cutting":8058,"ass,":7072,"▁commun":2795,"▁check":2304,"edu":5748,"▁It'll":10138,"▁register":11015,"▁woman.":7898,"rast":9676,"▁light":2621,"bum":4076,"iant.":11143,"新":914,"▁university":8772,"org/":1725,"▁oth":3083,"▁defined":9848,"▁true,":4980,"▁production":7788,"▁you...":8072,"UCK":3150,"action":6770,"ů":193,"ooper":9207,"▁any":1230,"▁future.":8048,"ing\"":6309,"▁free.":6549,"U":55,"q=":4335,"ized":2299,"▁weap":3810,"ively":4071,"▁\"n":5600,"▁led":8865,"▁talks":8960,"79":11574,"▁How":1529,"▁somewhat":6032,"▁Comp":5523,"▁flight":7995,"▁ev":1769,"▁result":3024,"ط":489,"▁reporting":9943,"▁motor":8249,"▁Person":5556,"▁Art":8769,"▁Sorry.":9301,"▁thanks!":11681,"▁tech":7114,"ix":1875,"ands":3574,"▁repe":4346,"▁ahead":4969,"ke":1089,"▁their":1337,"▁move":2652,"ware":2491,"That":5865,"▁beer":4444,"▁administ":5951,"▁\"what":11207,"▁prosec":7872,"▁t":1001,"tc":2320,"▁movement":7938,"hand":8641,"▁abst":8697,"FA":10027,"-off":10220,"▁bush":7860,"▁possess":10567,"ate.":2322,"—":550,"▁fell":4236,"▁Sounds":4049,"onymous":7711,"▁for?":7180,"▁add":1999,"▁AP":7840,"unch":2175,"-s":2460,"▁democracy":7279,";":31,"▁agree":2214,"▁par":2561,"ύ":375,"land":2459,"▁politics":5809,"▁tons":7638,"▁toget":3319,"opp":7008,"▁ing":8186,"▁Umm":8285,"-like":8786,"▁Reminds":9576,"bl":2212,"SFW":5075,"▁cra":2480,"▁Never":4103,"▁Chin":4473,"▁Chrome":8906,"ICK":9965,"▁downt":11643,"▁/b/":10166,"▁monit":11650,"ane":2897,"▁chuck":11192,"book":3092,"▁dies":9312,"▁indeed":6164,"▁border":7253,"▁L":1275,"▁wants":3064,"▁attention.":9437,"▁Ir":3127,"ye":8011,"̒":243,"come.":8690,"▁unless":3256,"win":6405,"▁prosecut":10186,"▁res":1541,"ets.":11261,"▁\"c":4271,"͌":297,"▁fun.":5938,"▁allows":7007,"▁shots":10883,"RE":2346,"▁hilari":7283,"▁Per":2946,"▁What":1400,"▁sex,":9306,"▁writing":4032,"white":9921,"▁One":2570,"DIT":2758,"▁En":4520,"▁vs.":6902,"standing":10222,"▁Poss":11616,"Đ":175,"▁pair":7254,"▁talk":2466,"到":861,"k.":4422,"▁SE":5568,"▁Shouldn't":9499,"▁drinks":11292,"▁Paul":2151,"▁Class":10207,"▁IF":11186,"albums/":10748,"▁An":2527,"▁crop":11711,"alking":8886,"▁high.":9398,"Р":394,"生":936,"▁beyond":5037,"▁thumb":6988,"▁girl,":8816,"▁alt":6906,"▁balance":9561,"anut":9836,"▁up":1219,"uz":6648,"▁God's":11828,"th.":6044,"▁totally":2896,"T.":8834,"▁helps":6548,"▁unique":8587,"ake":1817,"▁life?":9827,"▁press":3888,"▁dressed":11051,"▁construct":7887,"▁emot":5036,"kill":8008,"are":1287,"▁Ang":7947,"▁App":2711,"▁Wouldn't":6476,"▁sett":9282,"S.":2586,"▁statist":7101,"ample":8379,"╯":628,"▁monop":7868,"▁full":2247,"▁starts":5771,"erve":3575,"▁lunch":7623,"▁refers":10154,"▁'s":4875,"Â":117,"teen":11032,"](http://f":11935,"▁bullshit.":5713,"‪":560,"▁closer":7063,"▁cancer":6854,"▁delicious":8524,"▁pretending":10065,"▁stupid.":4839,"ation":1192,"▁cal":3620,"mod":3137,"▁SH":4436,"▁fact,":4337,"thing.":3296,"̣":260,"anks":7987,"ل":495,"▁quiet":8770,"▁coff":4594,"▁reads":8989,"KK":9188,"▁lesson":9602,"▁response.":9657,"▁cloud":9754,"▁faith":4762,"̯":272,"ating.":6740,"آ":470,"▁thinks":3932,"ors.":6804,"▁Thom":9333,"Á":116,"▁click":3260,"▁edited":10003,"▁Oct":11565,"É":122,"้":543,"▁cand":3480,"icide":5770,"uppet":11850,"ize.":8162,"uk":3683,"▁doll":2802,"▁fundam":5910,"▁Ver":10342,"▁i.e.":10062,"▁stopped":4483,"▁funn":2935,"▁*c":7004,"▁rub":5447,"IT":2047,"ach":1571,"▁data":4190,"▁money,":5792,"▁claiming":7274,"▁sever":3516,"▁impression":7374,"▁image":4113,"▁sort":2387,"▁sauce":10248,"▁U.S.":4479,"▁violence":5888,"▁leaders":10257,"imes.":6194,"ち":753,"▁(a":7509,"▁explain":2378,"17":4372,"a_":4701,"▁Aw":4765,"▁know...":8810,"▘":645,"▁duck":10450,"istory":8284,"ب":474,"age,":3779,"reet":7992,"▁\"r":8535,"ourse":9540,"▁spell":3307,"hered":6454,"▁35":9933,"▁26":10825,"▁boyfriend":6153,"▁\"H":3468,"TA":6435,"ism":1635,"▁N":1158,"irt":2641,"▁falling":8220,"▁Re":2131,"▁oil":3790,"▁On":1767,"▁lead":2863,"▁genocide":11033,"gy":3014,"_g":10491,"▁amaz":2950,"▁remove":5667,"ilit":6252,"ard":1253,"▁America":2888,"▁appe":2901,"▁\"w":4401,"▁sudden":5657,"oup":2437,"▁memory":5804,"▁prior":6692,"▁Er":6814,"aning":8198,"ography":9495,"ing,":1785,"RR":4659,"▁ass":1701,"▁unlikely":10643,"▁point?":7323,"▁toy":10685,"▁Mil":10741,"owse":11241,"▁proved":11965,"end":1236,"▁done":2150,"▁shoot":3269,"▁misle":7862,"ct":1121,"▁they'd":5260,"▁Gotta":11589,"▁bags":11671,"▁Cont":6542,"▁climate":9151,"▁creates":10862,"▁LOVE":11387,"▁fine.":5654,"ET":3379,"▁round":5369,"▁var":5610,"▁know?":8014,"uke":5704,"▁destroy":4827,"▁weather":8250,"▁(p":9753,"н":413,"▁additional":10370,"▁prohib":9871,"β":351,"▁functional":10989,"anc":3833,"た":751,"ioc":9514,"ý":167,"aps":2295,"▁shit":1662,"‿":567,"ips":4491,"▁(in":5253,"▁broken":5300,"ス":800,"BC":4855,"weight":9662,"▁*S":7715,"95":5451,"▁faster":4809,"▁magaz":8871,"▁change.":7594,"▁installed":8188,"√":584,"94":6253,"▁riding":9177,"▁aid":8599,"▁DU":10121,"▁yout":5598,"▁Until":7878,"▁prev":3038,"ity,":3228,"▁hadn't":6279,"ッ":804,"▁includ":3489,"ps":3679,"opath":7682,"it!":10670,"▁an":1042,"▁ven":10874,"ט":450,"akes":3909,"▁myth":7835,"▁cycl":10363,"▁odd":4319,"▁F":1214,"watch":2034,"▁deal.":7850,"▁\"ch":10405,"▁please,":11595,"▁harm":4657,"▁treatment":8597,"▁reven":6773,"▁sentence.":9587,"▁laugh.":10303,"▁loaded":11545,"̊":235,"▁wondering":5359,"▁advertis":8003,"OULD":9412,"irm":3852,"▁terrible":4112,"▁are.":3911,"▁according":5444,"▁number.":11174,"▁pilot":11526,"▁other":1413,"▁games,":9401,"believ":11433,"a)":11218,"ipping":6033,"aching":6834,"▁blat":9169,"▁cond":5998,"▁develop":2865,"▁perfectly":4815,"rome":5661,"▁against":2100,"▁Yes.":4016,"▁worked":3412,"ween":2188,"▁humans":5350,"▁500":7026,"MB":8146,"inger":9524,"DA":10764,"̎":239,"▁scary":7207,"▁grow":3922,"▁marijuana":7375,"▁linking":11714,"▁fat":3305,"▁tries":8348,"▁bill":3140,"just":3933,"urch":3399,"▁*al":11449,"s,":1257,"▁core":6979,"de":1487,"▁nice.":7171,"▁preferred":11444,"iding":4600,"▁political":3461,"▁criminal":4799,"思":898,"▁'t":5379,"▁zomb":6021,"▁surger":8813,"▁day":1561,"limited":11566,"▁typ":2696,"▁stole":7936,"▁wouldn't":1971,"▁judge":5973,"ination.":8710,"▁head,":10777,"▁industrial":11438,"ank":1530,"▁brilliant":7748,"nect":3758,"▁growth":11099,"▁occurred":11739,"ɔ":204,"▁Bus":9006,"rrrr":10896,"ɐ":201,"▁en":1393,"▁X":2477,"▁mean,":3557,"▁Its":3067,"▁ce":4528,"sl":4870,"▁aw":1772,"▁supporting":6806,"inn":4510,"▆":636,"good":9086,"▁doing.":9089,"▁more,":7695,"▁whatsoever":9622,"▁week,":10020,"etter":10694,"▁on":1076,"▁strike":9372,"▁to,":5721,"▁&gt;Wh":6731,"/t":6029,"▁submit":6231,"∀":577,"▁damn":2542,"▁Canadians":10621,"▁question?":10875,"▁low":3216,"▁loving":10294,"▁install":3403,"▁accounts":8642,"▁upload":8413,"▁cheating":10677,"▁years,":4835,"▁love.":11016,"▁signific":4885,"▁killing":3945,"K.":9594,"▁C":1147,"▁Civil":11726,"▁served":10476,"▁masturb":6106,"▁interview":5578,"ero":4145,"onder":8106,"っ":754,"comp":4204,"compl":6359,"▁picking":8335,"▁ex":1201,"▁shit,":4963,"▁Though":6091,"▁sake":6083,"name":8364,"▁committed":8848,"▁Tim":9007,"es.com/":9525,"▁bal":5697,"▁Jackson":10088,"▁differences":10834,"▁&gt;A":4658,"▁Life":7510,"ich":1395,"db":6188,"▁tur":9397,"▁Today":11746,"▁finish":4404,"▁acid":9017,"fish":11569,"▁Very":4806,"ע":460,"▁kid.":7410,"▁fan":3052,"ω":373,"hing":1305,"т":418,"/m":3764,"▁heavy":6990,"](http://d":11683,"▁New":2600,"ped":3266,"▁plate":11858,"▁controls":11919,"▁el":1712,"▁Mexic":5339,"∪":589,"̙":250,"el":1256,"y?":3729,"▁traff":5645,"▁philosoph":5717,"▁acting":6453,"ie,":8508,"▁impr":11645,"??":2134,"am.":6037,"▁ha":1086,"▁girl.":7084,"fin":9923,"arg":8744,"ס":459,"▁haven't":2439,"df":7017,"'m":2288,"▁secure":11243,"▁cod":4405,"▁cards":8353,"▁&gt;&gt;":9108,"eez":7760,"다":983,"▁phrase":6246,"▁screw":4393,"aste":8879,"▁eight":8192,"▁sexy":10141,"К":388,"♘":695,"▁down,":5857,"▁promise":9720,"▁[DO":1058,"♟":702,"▁list":2060,"▁react":4186,"▁safety":8060,"▁PHP":8410,"▁Jews":5027,"ican":10830,"▁hij":11891,"▁pre":1300,"▁drop":4259,"▁arg":2041,"▁\"in":8309,"▁system.":4932,"▁Rand":8818,"▁paid":3393,"▁vagin":9366,"▁intell":3073,"▁complete":3813,"▁throw":4022,"▁women.":6520,"AY":4177,"ents":2388,"ju":4721,"▁redditors":5228,"▁IQ":8046,"ife.":7073,"olution.":8964,"▁customer":9429,"lett":10086,"▁decre":10884,"orrent":5106,"▁Upvoted":4816,"ain.":6072,"page":7866,"▁this":1136,"▁free":2036,"▁so.":4017,"▁burning":8662,"▁capitalism":9563,"▁Space":10228,"](http://en.wikipedia.org/wiki/A":11131,"merican":8055,"ately":2531,"▁Why?":5515,"▁she'd":11305,"▁Mom":11317,"͇":292,"kes":1566,"ran":8870,"¬":107,"LLY":8456,"ferent":9618,"▁sleeping":10339,"te":2275,"full":2878,"▁gotten":4687,"▁Wor":6393,"▁something,":6499,"▁ab":1159,"▁&amp;":3371,"ミ":818,"▁Bar":5921,"▁prep":5976,"▁accept":3040,"▁tv":6776,"▁blah":7689,"reg":4677,"▁Yet":7566,"ɹ":212,"▁AND":4323,"▁WoW":8497,"REAK":9982,"▁wage":9221,"ב":443,"口":867,"▁hah":4249,"ament":7402,"▁boys":7989,"ner":3134,"iac":10408,"≡":594,"▁mor":2719,"メ":819,"▁downloaded":11454,"can":5213,"able.":2850,"ter":1180,"▁another":1981,"▁arrow":8480,"▁least":1843,"▁fap":8260,"的":940,"▁pig":5621,"▁rab":7649,"▁chocolate":10051,"▁di":2617,"▁firearm":11492,"▁Her":5743,"▁cens":6489,"▁charac":3308,"▁killer":11608,"ment":1249,"▁very,":11562,"78":11690,"▁firm":7953,"pt":1388,"34":5312,"▁team":3977,"▁Cra":9417,"▁domain":9323,"▁major":2604,"▁portion":9589,"▁90%":7390,"▁Getting":10124,"▁family.":9008,"▁DE":7980,"͝":314,"▁McDonald":8219,"omal":11289,"索":948,"AM":3265,"▁CEO":9031,"▁American":2203,"▁EDIT:":3231,"▁specifically":5301,"imp":6265,"▁ship":5929,"EL":11457,"p-content/uploads/":9968,"ゃ":771,"▁grab":6204,"▁creepy":8610,"ular":1921,"belie":8957,"edge":10043,"▁Turn":8696,"IST":8088,"ρ":366,"▁50":3359,"▁Texas":6481,"▁colon":9861,"ried":3030,"▁system":2012,"ō":186,"▁Let's":3774,"▁global":5742,"▁Sat":6304,"▁paragraph":8999,"user/":10098,"s'":7774,"▁drinking":5283,"▁inv":1889,"▁attention":4301,"▁jokes":6184,"/C":7983,"▁kicked":8026,"▁[SEP]":1014,"▁on?":8144,"▁dow":10464,"▁[this](http://www.":10597,"▁profession":11181,"_of_":5008,"5%":6212,"▁rhetor":9485,"O.":6121,"ently":3055,"articles":11458,"▁websites":10069,"em":1225,"с":417,"▁terrorists":8557,"ful":1750,"▁babies":7720,"overed":6165,"bt":2470,"▁guy.":4552,"▁broadcast":11748,"▁sad.":7452,"▁":631,".co.uk":7177,"▁[Here":6224,"In":7669,"▁Definitely":9520,"▁dress":5328,"▁bashing":11537,"ness.":5832,"iers":6242,"文":913,"▁cool,":7886,"▁soon.":7941,"aybe":8551,"ث":477,"▁wow":7345,"▁shit!":11917,"▁heard":2144,"▁metric":9978,"GE":6779,"_of":4845,"wn":1546,"▁atmosphere":11307,"800":10348,"▁thought":1609,"HH":2735,"-c":3044,"ɒ":203,"host":6907,"▁neither":5571,"▁years?":9329,"▁min":1874,"▁humanity":9104,"▁department":9550,"aterial":4894,"yr":5325,"▁intelligence":7051,"▁ability":4848,"▁was.":5594,"amb":6709,"▁4":1726,"isl":6446,"▁That's":1549,"▁milk":6116,"nder":6384,"キ":792,"▁contains":10439,"QL":8286,"▁suggested":10427,"o.":1797,"USE":10943,"▁WILL":11057,"▁:D":4342,"elf":8832,"▁reddit,":5343,"أ":471,"▁religion":3326,"▁research":3928,"▁speak":2938,"ty":2147,"▁[here":6274,"thread":10545,"erd":4849,"▁*h":5495,"▁interested":4087,"▁decade":10286,"▁message.":11420,"▁dollar":4051,"’s":5830,"▁ub":9170,"▁hoping":5148,"▁gang":7280,"ache":5210,"ome.":2664,"den":9189,"▁photograph":7710,"▁neighbor":5802,"▁Dick":9284,"▁Rad":9487,"cess":1956,"▁[H":4449,"emon":7407,"thing":1524,"了":838,"▁song":2906,"orter":8880,"▁insight":8901,"▁fine,":8794,"▁(un":11142,"▁tits":11282,"izard":11394,"ż":196,"▁idea.":4300,"▁games.":6955,"y.\"":11256,"▁inst":1743,"▁cir":10828,"▁Swed":6790,"▁9.":11517,"▁handed":11376,"ry":1365,"uu":3588,"idden":6624,"-re":7194,"▁preced":11372,"▁teacher":4892,"▁AN":3160,"▁cur":2272,"age":1425,"▁Eng":2745,"ج":478,".jpg)":3262,"▁tim":1316,"▁opt":3894,"▁users":4344,"á":140,"icag":7013,"er!":7991,"▁anim":3000,"▁spelling":6046,"▁independent":8694,"ah":1356,"▁*are*":11437,"CH":5344,"▁equal":5423,"▁fant":4471,"▁too,":3713,"▁AS":6929,"rick":11408,"erman":3524,"▁Bacon":11841,"▁typed":10404,"you":2827,"rac":11890,"▁knife":8344,"▁world's":9042,"▁exchange":9046,"▁coinc":9052,"▁incre":3693,"▁collective":11842,"▁activity":11554,"▁Doesn't":5108,"▁pocket":8629,"▁said:":11534,"ember":2094,"▁symbol":7632,"▁hand.":7932,"▁remark":8237,"▁down?":10492,"▁gf":11653,"▁stupid,":8660,"▁fire":2683,"▁socially":11639,"▁propag":5486,"ん":782,"▁frank":10398,"VER":3859,"▁brows":3731,"▁national":4757,"▁deaths":10594,"▁cloth":6011,"▁manual":10676,"▁webs":3303,"▁shown":6778,"▁page":2854,"▁thing.":2840,"▁(I'm":7408,"▁tools":9070,"when":10574,"▁plat":5953,"▁\"you":7201,"ing?":3020,"语":962,"▁wear":4189,"▁figured":5268,"type":11483,"wed":11902,"tty":1552,"▁\"fuck":11395,"▁events":9183,".co.uk/":10796,"▁account":2715,"▁u":3976,"▁[":1002,"▁army":7709,"edom":3506,"▁—":10823,"▁library":7881,"▁Besides,":9463,"▁envelope":11275,"▁Would":3135,"ays":5333,"und":2757,"ri":1119,"▁all?":8823,"▁individuals":10184,"▁nearly":4515,"▁throughout":9288,"▁big":1802,"▁us.":4560,"▁they've":5047,"▁pol":1706,"▁first,":7102,"▁Indeed.":9424,"▁cant":5723,"→":572,"aus":8295,"▁too":1377,"▁reality.":9148,"▁/":2186,"▁listen":3131,"aling":7290,"▁opp":2421,"vert":2943,"▁liber":3554,"itation":5146,"▁idiot.":5691,"λ":360,"▁nature":5055,"▁stab":7430,"▁medicine":11240,"▁Santa":11382,"▁disagree":4163,"▁behavior":6579,"▁worthless":9975,"▁upgrade":10006,"htm)":8369,"▁temperature":8521,"▁dumb.":10924,"▁clever":6330,"▁agree.":4356,"▁Daily":8548,"▁reality":5233,"▁x":3400,"▁reverse":9203,"▁function":4193,"▁\"de":11507,"/n":7908,"إ":472,"▁involves":10527,"▁states.":10690,"sych":3950,"▁sit":2044,"ǝ":200,"▁made":1703,"on,":2874,"ormal":10082,"▁remain":7729,"▁cute":5847,"▁bitching":11273,"6.":6844,"▁hum":1893,"▁loan":9804,"▁loose":9023,"▁mur":3289,"▁King":6961,"▁fairly":4682,"▁perpet":9313,"ress":1627,"chang":10978,"_to_":11436,"▁minut":2820,"alth":2057,"▁don't.":5548,"▁while.":6972,"atic.":8943,"▁suicide":7142,"▁month":2202,"▁comfort":5928,"▁religion.":6535,"-T":8395,"▁da":3402,"ء":469,"М":390,"▁Why":1629,"▁whatever.":10326,"▁For":2113,"▁K":1560,"▁maybe":2248,"polit":7460,"▁system,":7637,"▁language.":6829,"▁Police":10407,"▁www.":10507,"▁fail":2405,"W":57,"TW":4911,"▁old":1697,"ge.":5112,"▁Port":7782,"ation?":6219,"▁process.":10981,"ina":3226,"▁submitter":10974,"▁Unfortunately,":7212,"ving.":9001,"▁cub":11925,"▁na":7668,"̜":253,"outh":2595,"▁restrict":10325,"HING":11485,"▁reference":4277,"▁clock":8481,"ed*":10426,"▁show,":11254,"▁one":1260,"▁360":7220,"though":3117,"▁one...":11667,"anna":5111,"▁baseball":10721,"▁Yup.":11747,"ancy":7137,"▁nast":7587,"▁computer":3107,"▁diff":9466,"eeee":6001,"▁communic":6900,"▁Find":9261,"▁arch":6601,"▁obliv":9783,"▁it!":4252,"▁wild":6349,"ege":3455,"▁dare":7252,"▁URL":8245,"▁off":1412,"▁WOR":9314,"▁protect":3490,"amin":10369,"s/":1748,"َ":502,"▁israel":7560,"ational":2283,"▁rape":4830,"key":3511,"▁Capital":10608,"▁fo":11231,"▁much.":3971,"▁wealth":5403,"▁Ed":6691,"ague":8591,"irl":4644,"▁sup":1516,"upid":1973,"▁life":2096,"▁sharp":11073,"▁Cause":11753,"▁French":5454,"▁b":1020,"必":897,"term":7232,"ket":11125,"arb":4230,"▁#1":9065,"▁track":4077,"▁built":4787,"▁gen":1777,"▁king":10007,"▁RAM":8857,"▁Anybody":10610,"▁party.":8102,"▁thing":1341,"██":9339,"off":3576,"▁screwed":9125,"arl":7217,"osen":9400,"▁have":1123,"▁USA":4096,"▁phon":11729,"▁[b":11691,"lev":2908,"▁otherw":4140,"*":14,"Ε":334,"▁keeping":5909,"ime.":6932,"▁conc":3019,"▁See,":8841,"▁drugs.":11442,"▁q":10241,"this":2829,"ろ":779,"̓":244,"▁occ":3218,"ended":3530,"▁bub":6871,"̼":285,"ations.":5274,"▁mock":7388,"▁Conserv":10479,"otch":10576,"▁animal":4614,"▁Adm":10929,"▁registered":11362,"ste":11968,"▁dem":2955,"▁ca":2029,"▁perfect":2859,"olute":5772,"▁carry":4192,"▁entire":2376,"▁nowhere":8412,"▁Spe":4881,"▁world,":6127,"▁applied":10100,"-to":5494,"***":6948,"▁fancy":9885,"h?":3850,"it.":2430,"進":966,"▁\"not":9993,"oy":1575,"▁desp":5361,"▁anyway,":8760,"▁whoever":8678,"▁besides":8179,"▁Tex":4766,"▁retard":3344,"user":5932,"▁circle":7607,"cat":8080,"▁RI":11377,"▁dunno,":10609,"▁individual":4251,"▁so":1170,"▁Sir":9865,"▁pics":6565,"▁former":6403,"▁Anyway,":8809,"▢":655,"R":52,"▁week":2406,"う":735,"levant":4544,"▁Oper":6838,"▁this!":11853,"ं":509,"cond":2007,"vered":5947,"▁toward":8546,"▁ic":8083,"▁argument":2436,"▁punish":5097,"▁TV":3369,"▁taught":5849,"▁solve":6953,"ı":182,"roll":2119,"oca":7381,"▁Ital":7692,"▁(at":9015,"Φ":342,"▁Rub":7745,"▁COM":8936,"ortun":5296,"▁non-":2730,"▁advance":11724,"velope":10844,"▁trigg":10117,"▁profile":11019,"▁Colbert":10843,"▁exception":8950,"ame.":3488,"abor":6094,"▁facebook":7702,"▁Mad":8370,"igsl":9597,"▁IT":3459,"▁\"If":8215,"▁power,":11268,"▁academ":10420,"e.":1105,"▁YouTube":9747,"▁Vote":10811,"▁down-":11193,"▁gun":2350,"enn":3593,"▁hours.":8589,"▁[\"":10459,"▁here...":9663,"▁bon":5570,"▁folk":7772,"▁fat.":11596,"imgur.com/":3023,"ail.":9546,"▁That":1319,"new":2905,"▁wheel":7202,"▁Green":8567,"▁Mart":9627,"cles":8686,"▁War":4559,"ulu":9847,"▁solution.":11663,"▁manager":10274,"▁belief":3558,"▁Jer":8512,"▁sale":11354,"▁diss":7044,"ar,":8313,"urity":4228,"ica":6716,"▁empty":8023,"▁but":1150,"▁Atl":10702,"u":87,"TER":6661,"▁eventually":5401,"at,":5685,"▁complex":5516,"▁Air":8470,".jpg).":9212,"▁everything":2349,"▁saving":6131,"プ":816,"▓":643,"ot":1054,"▁night.":6042,"ists,":7967,"▁stomach":9491,"ジ":799,"▁helm":11638,"▁least,":8646,"▁cap":2389,"▁body.":9787,"▁Bl":2763,"▁People":2628,"▁aren't":2122,"▁cou":2254,"▁cit":3243,"▁business.":7399,"▁V":1652,"OO":2132,"▁eye":4516,"ight.":5724,"▁upper":9226,"┌":607,"imageshack.us/img":9951,"show":7976,"urs":4924,"▁reprodu":10711,"▁$4":8969,"▁countries.":10196,"▁that.":1763,"▁ignorant":5121,"▁br":1565,"▁^":7031,"▁it?":2208,"▁wonderful":8115,"─":603,"▁addit":6099,"▁des":1708,"の":763,"▁either":2520,"ML":5618,"▁why?":7780,"▁surprising":8388,"▁paste":11745,"ython":5091,"▁involved":5154,"▁knows":3247,"¢":99,"ill":1132,"&amp;feature=":6928,"▁mind,":9250,"cil":9931,"▁play":1634,"▁reput":10144,"▁telling":3716,"ech":3378,"▁India":8952,"▁behind":3220,"▁swe":3755,"▁internal":11077,"▁opposite":5611,"29":7059,"ら":775,"ف":492,"國":875,"セ":801,"▁means.":7415,"▁joking":6784,"/D":10885,"▁*D":11182,"▁coll":2199,"▁seed":11063,"▁Really":3233,"▁Looks":4622,"imm":5806,"▁According":7009,"▁street":4860,"upp":6434,"i=":11471,"▁China":5243,"▁foll":2592,"ock":1812,"top":3011,"▁Yea,":7790,"ten":2326,"▁bastard":7257,"▁videos":6050,"▁die.":6803,"2009/0":7443,"▁GET":8977,"▁Germany":8394,"▁Sw":4507,"▁store.":10873,"▁state,":10536,"antic":6179,"﻿":999,"▁environ":4953,"▁desk":5285,"▁questions":4715,"▁called":2185,"â":141,"▁defin":2174,"ite,":6234,"▁\"I":2160,"▁import":2685,"▁&gt;W":7752,"▁implies":8606,"▁barrel":10782,"▁year.":4518,"wards":3411,"▁man":1348,"O":49,"▁bett":1577,"▁Spanish":10308,"www.":1375,"ugs":9470,"▁ens":7876,"ult":1500,"▁campaign":4480,"vill":9343,"t,":9362,"▁determ":6036,"▁caps":10523,"com":1238,"__":3302,"▁occasionally":11003,"放":911,"们":847,"▁regul":7830,"▁conditions":11600,"▁run":1830,")":13,"9":29,"▁no,":3560,"▁ignore":4954,"▁reason.":5313,"▁following":5045,"ã":142,"▁Ok,":5374,"▁redditor":6041,"▁previous":5813,"▁bacon.":10595,",\"":5798,"7.":5114,"▁law,":9224,"▁Or,":8067,"▁cor":1866,"▁report":3354,"od":1306,"ceed":6206,"▁stor":2692,"▁More":3687,"ates,":8178,"▁err":8931,"▁Anyone":3768,"▁considered":3741,"▁raw":10128,"lim":2960,"▁station":7477,"ʊ":216,"kel":9185,"▁Jud":7246,"▁keys":9760,"▁Sun":5965,"▁someone's":6729,"awn":7639,"▁proced":9232,"▁guys":2217,"み":768,"K":45,"▁black.":11179,"▁choice.":7334,"▁swing":11302,"▁advert":4754,"▁download":3701,"▁say,":3825,"▁sending":7604,"▁haha":7743,"▁last":1895,"load":2511,"▁background":5491,"▁of,":9073,"▁pant":6743,"▁woman":2431,"ality":2644,"oly":3099,"▁'em":7034,"▁mixed":8961,"▁je":9445,"▁j":1125,"14":4130,"▁browser":5730,"aid":2688,"▁posting":4238,"▁Republican":4709,"▁Wal":6048,"▁Out":6257,"▁argument.":6608,"▁lawn":8944,"jack":11769,"▁(H":11384,"╚":620,"▁tomorrow":6509,"▁gentle":10247,"▁win":2309,"۞":508,"▁tall":7262,"coming":9567,"rants":10990,"▁challen":7383,"▁seconds":5410,"▁yes,":3314,"astic":3440,"▁can.":6518,"▁GOD":7205,"▁shap":8774,"▁hold":2780,"▁restaurant":8443,"rib":2668,"is.":3760,"▁you,":2292,"▁fantastic":8121,"▁car,":8872,"gers":9482,"This":3998,"ulations":10897,"](http://www.reddit.com/r/":3429,"▁den":3604,"▁effective":6501,"▁seriously.":7642,"▁left":2268,"▁transfer":10289,"▁support.":9997,"・":827,"▁band":3931,"▁releas":4604,"par":3891,"edu/":10264,"images":3988,"▁Bur":9784,"ge,":7434,"̬":269,"▁liqu":7302,"▁statements":8903,"▁serious":2738,"▁benef":3868,"▁upon":4872,"ky":5485,"▁\"l":5082,"▁connection":7747,"z":92,"ы":426,"▁taking":2885,"▁poison":9208,"▁*and":9384,"▁orders":10857,"▁edge":11121,"commun":11825,"▁down":1419,"▁cre":2098,"up":1134,"▁Every":2485,"▁affect":5014,"▁que":6680,"▁flav":7661,"▁happy.":9395,"ire.":9010,"▁vagina":8391,"▁thro":9986,"▁place?":10129,"uild":10440,"▁Any":2249,"▁Another":6156,"interest":11496,"_(":11094,"▁broad":6408,"▁discussion.":10287,"urn":1690,"oogle":2123,"▁symb":6916,"═":616,"reddit":1806,"▁white":2787,"ine":1391,"▁DN":7634,"▁Start":8577,"unning":9243,"▁article?":11024,"ft":1596,"▁embarrass":6528,"reck":11295,"▁zombie":9194,"▁won't":2237,"▁Dead":8338,"▁is":1062,"▁Prot":8998,"▁nation":4942,"ged":3572,"▁charged":7890,"▁solid":6765,"▁didn't":1521,"▁appreci":4442,"▁Hmm,":9186,"▁cheese":6346,"iiii":8228,"▁received":8375,"▁died":4676,"▁manip":8463,"▁Yeah,":1929,"RO":10876,"▁clim":11195,"-G":11510,"▝":650,"▁group":2707,"▁Obv":5265,"force":5996,"ih":7011,"▁laz":9296,"▁reasoning":9937,"니":982,"▁late":4232,"▁however":5064,"▁area.":9266,"▁Is":1522,"ers?":4501,"▁times":2395,"▁away.":4961,"▁Pol":6016,"▁oh,":8448,"rol":2610,"amazon.com/":9979,"̶":279,"▁flag":6068,"68":11792,"aled":8107,"▁They've":9138,"▁contradict":10836,"awkins":10939,"り":776,"usi":11810,"▁champ":11886,"▁Com":2635,"▁phr":4803,"ie.":3704,"▁Palestinian":8645,"▁given":3161,"▁kept":5000,"▬":657,"wl":11775,"▁pot":3037,"▁console":9066,"acc":3934,"alm":8893,"▁son":5069,"▁worried":6860,"Ô":130,"▁cho":2869,"entially":5040,"eel":5397,"reen":5376,"▁Anyway":6686,"edic":7600,"▁Makes":7832,"▁Shit":9300,"▁well.":2634,"́":227,"techn":10898,"▁Z":2710,"▁request":6114,"▁jav":8143,"=":32,"ink":1165,"ike":1931,"une":4986,"▁poor":2870,"FF":3611,"▁societ":5512,"▁I.":8996,"▁EVER":5901,"▁did.":4315,"▁airport":10213,"≤":595,"-of":6541,"in.":3625,"▁Social":7595,"▁rockets":10080,"_1":11096,"▁rant":10116,"▁hired":11344,"▁origin":5821,"ي":501,"ALL":6276,"▁drove":11431,"▁actively":11020,"▁rem":1782,"▁vag":4386,"▁NO":4672,"s_":4602,"▁EU":9809,"▁Alex":10255,"▁cite":11579,"▁delivery":10863,"▁turns":5586,"umber":2245,"▁months":3316,"▁Far":11008,"▁Reddit":1959,"▁Damm":11688,"▁GU":7834,"▁10%":8700,"▁smells":11722,"▁mind":2105,"rate":7889,"▁moon":6722,"oday":8279,"aum":11422,"▁HOW":11697,"▁*b":8278,"▁sub-":11956,"▁nuts":8423,"✓":712,"▁Bet":5016,"oman":5891,"acked":8683,"▁condem":11654,"M.":8509,"▁hypoth":9298,",000":2750,"▁recognize":7070,"▁$20":8545,"▁jump":4062,"xy":7018,"ions":1603,"▁Clearly":8709,"▁clicked":7475,"rink":9434,"▁mature":10773,"▁elim":9163,"band":5292,"hell":9701,"▁ration":11563,"▁WAY":11476,"▁electricity":11997,"TF":2429,"ch":1110,"▁girls":3191,"lex":3680,"▁sucks":5509,"▁*is*":6281,"▁ast":6749,"▁w":1012,"clud":6702,"║":617,"▁-":1355,"▁kn":1237,"▁flat":7150,"AK":7476,"▁inf":1844,"▁happen":1885,"cont":3848,"▁fake":4036,"▁Hey,":4394,"WW":7854,"▁quotes":9382,"┘":610,"▁wet":9606,"▁All":2281,"▁available":4389,"ad.":7777,"▁-&gt;":7296,"▁uncomfort":9659,"▁WITH":8486,"▁*B":10354,"▁kitchen":10809,"▁in":1052,"▁morality":11342,"▁When":1992,"▁David":7845,"OU":2197,"↗":575,"You":3518,"▄":634,"▁cop":2135,"▁arms":7842,"/s":3221,"usic":11597,"pose":2940,"▁spelled":8905,"▁morally":11642,"ies?":7245,"ird":2210,"Ç":121,"▁LIKE":10297,"▁Michael":6267,"▁collection":10044,"▁My":1653,"О":392,"asy":5441,"▁vacu":11325,"﴾":997,"a...":8183,"▁though...":9182,"ash,":11974,"▁downmod":5384,"ç":146,"▁language":3401,"▁air":2948,"▁biggest":5204,"▁profit":5319,"▁re-":6812,"▁see,":7116,"part":7341,"▁explained":8592,"▁sites":5511,"conf":10397,"▁ideas":5382,"▁possible.":6343,"▁creat":2636,"▁step":3872,"inal":2035,"▁13":5226,"▁\"A":3387,"ume":5422,"▁IP":6529,"▁cab":6820,"▁strang":6383,"▁magn":9000,"▁evil.":9403,"▁suic":11863,"▁illeg":3196,"▁wipe":10125,"▁breaks":9096,"one":1179,"▁*M":10469,"讓":961,"▁eyes":4470,"▁shar":7620,"▁exp":2358,"ily,":8203,"▁content.":10541,"iting":2957,"̠":257,"▁del":4971,"▁before":1663,"ision":3404,"ot.":5018,"▁wait":2136,"▁hundred":4365,"▁thus":5706,"▁toler":7282,"vid":9641,"tr":3060,"▁moral":5186,"▁transl":5558,"▁who":1263,"▁perman":9014,"▁memor":9990,"▁again":1615,"▁attracted":10212,"▁Whats":10601,"ap.":7727,"▁countries":3972,"▁crazy.":7686,"ك":494,"▁know,":2640,"▁do":1111,"▁overall":8753,"⠁":716,"▁spy":11146,"▁hair.":11961,"▁DVD":7120,"ether":2790,"▁May":2027,"▁Christian":3189,"э":428,"▁Gaz":7734,"▁nin":9112,"Ñ":127,"▁giving":3552,"▁enjoyed":6996,"고":977,"▁Ign":10789,"▁Secret":10881,"▁mode":9851,"▁dinosaur":11249,"gramm":6616,"omed":8500,"▁trail":7185,"▁tonight":9492,"nam":9157,"▁simply":2851,"▁lost":3081,"▁essentially":7067,"▁designed":5925,"▁\\*":8540,"/w":5389,"▁cent":3177,"▁correct.":6174,"▁deb":3263,"▁punctu":10409,"▁sensational":10708,"▁bitter":11539,"-ass":8742,"▁lob":6364,"reci":4094,"▁hospital":7170,"fact":5276,"▁Read":4636,"▁occasion":8098,"come":2311,"▁club":5595,"▁values":9150,"▁one,":3958,"kk":11900,"▁got":1473,"▁fin":2141,"▁engineer":9003,"▁[deleted]":1680,"▁really":1352,"99":3009,"▁wrong,":4959,"▁cars":5232,"▁use":1468,"iliar":6146,"ristian":10218,"aur":4276,"▁war":2153,"▁p":1031,"▁perhaps":4390,"▁vo":3725,"FL":9121,"i/":1901,"▁changes":6357,"▁MAN":10486,"▁[O":7701,"̭":270,"告":871,"cing":3176,"▁\"b":3912,"▁conversation":5816,"▁smoking":5001,"▁folks":5977,"icks":6890,"ly?":8902,"▁sheep":6764,"▁college.":9508,"▁Engine":11870,"▁hasn't":4257,"性":899,"cell":4070,"▁Somet":3651,"어":988,"▁behav":4711,"▁numer":10377,"▁(S":7791,"所":907,"IS":2964,"▁clos":3147,"eless":6933,"▁weeks":4696,"hl=en":8449,"▁Youtub":10750,"▁sam":11493,"Id":11949,"▁one!":11054,"ro":1103,"lam":4244,"▁viewpoint":10634,"oob":9040,"▁dollars.":11050,"▁privile":11743,"ͫ":327,"▁Christ":2260,"icking":3640,"fox":3545,"▁Our":5903,"ears":6375,"/comments/7":10720,"▁others":3259,"“":554,"▁than":1311,"▁Kore":6076,"▁child.":9391,"▁controll":5756,"▁bur":4295,"▁inter":2280,"「":730,"▁you'd":3271,"▁rum":10179,"web":6216,"ested":10164,"▁Econom":11822,"▁Bush.":10719,"▁Church":7769,"▁athe":2584,"ε":354,"▁yourself.":4880,"RA":6502,"▁feel":1677,"ired":2328,"ily.":6110,"gypt":9679,"▁fun":1533,"▁&gt;I":2806,"▁ded":9022,"-h":3332,"ghan":6317,"る":777,"▁Even":2913,"▁obscure":11059,"ο":364,"iot":2415,"ay,":3707,"▁OK":3736,"▁Mon":4767,"▁dead.":6877,"▁set":2173,"ّ":505,"Í":124,"osh":4486,"24":5032,"orth":3508,"HHHHHHHH":9413,"▁mount":6869,"!)":6978,"▁subsid":8790,"▁Athe":6027,"▁access":4136,"▁h":1023,"▁recently":4861,"/M":8076,"▁sexual":4551,"▁guns.":10959,"▁real.":7576,"il.":8471,"▁Cath":6004,"▁capt":6368,"kell":6723,"ited":2360,"aint":6712,"▁..":5139,"่":542,"-out":8336,"▁filled":7138,"doc":9056,"▁bias":8383,"▁Little":9615,"▁Yo":11648,"▁replace":6460,"!!!":2922,"▁Welcome":7611,"▁threads":8380,"▁determine":10053,"▁generally":4292,"▁associ":6213,"▁slightly":5387,"▁post,":8269,"▁MM":9802,"▁newspaper":11848,"ves":1816,"▁land":3132,"▁exper":2239,"IX":11698,"|":94,"ash":1880,"▁good.":3491,"▁Cal":4167,"儘":855,"urban":8984,"ater":1838,"▁buck":5078,"acy,":9748,"▁planet.":10971,"▁brother":4886,"▁rate":5100,"▁syntax":9370,"说":963,"І":379,"▁shitty":4915,"abs":9024,"▁ble":5579,"̸":281,"content":5631,"▁SHIT":8791,"這":965,"pecially":2720,"▁Mont":8466,"▁been":1417,"▁Do":1620,"▁lat":6354,"DR":11527,"ARD":9674,"▁McCain.":11994,"▁currently":4897,"▁sick":3497,"▁strange":5983,"▁attend":10253,"▁phenomen":9341,"▁Count":8042,"ʞ":221,"α":350,"▁Jack":5490,"▁Unless":4216,"ategy":10840,"▁Hitler":6039,"▁actually.":6040,"▁us":1281,"▁ri":2909,"▁impl":4253,"35":4741,"usion":6430,"eth":4081,"oler":9828,"▁Safari":11053,"ictionary":9742,"gan":3012,"erk":4998,"▁trap":11561,"ַ":439,"▁she":1450,"▁create":4085,"ism,":4852,"AA":1913,"▁Reddit,":7281,"▁afford":4498,"▁weekend":6755,"▁admit":4675,"▁changing":6934,"▁cock":4603,"▁referred":10798,"▁position.":11319,"▁foreign":4989,"ctr":8541,"▁tempt":11185,"▁CO":7527,"▁buddy.":11933,"▁well,":3444,"▁prices":6429,"▁Wait,":5088,"agine":6752,"Ä":118,"▁knock":5829,"▁ur":4508,"▁org":7558,"▁live.":8643,"▁infrastruct":10343,"▁needed]":10004,"▁when":1310,"خ":480,"ON":2591,"▁Am":2828,"▁\"L":5367,"▁irrit":11225,"▁become":2919,"▁[Y":11783,"▁close.":11390,"▁bu":1469,"sel":2471,"youtub":2065,"hh":2599,"▁negative":4984,"▁Without":7733,"ads":8751,"▁developer":11159,"▁plan":2380,"▁pit":11429,"▁becomes":5754,"▁whatever":2978,"▁However,":3802,"▁oppress":8831,"rad":9948,"ह":522,"rm":10021,"▁&gt;F":10330,"▁CAN":6883,"と":758,"/).":8077,"-year-old":8259,"▁O'Re":10304,"▁al":1222,"hern":7351,"▁point":1488,"▁ancient":10465,"MM":7506,"▁waiting":4407,"▁Super":7615,"▁bed":5133,"ή":348,"▁say.":5545,"▁kidd":4509,"▁randomly":11111,"▁statistics":10435,"▁paint":8172,"▁coal":11803,"▁why.":7658,"▁LA":8930,"▁fuck,":11763,"▁Left":11208,"&amp;q=":8713,"▁mountain":11366,"▁although":4878,"▁lately":10559,"▁dis":1458,"▁if":1221,"▁agre":2705,"arter":5779,"▁item":7861,"ength":6788,"▁pupp":8525,"▁Sorry":2983,"3":23,"ver":1087,"▁nothing":1908,"ewart":8054,"▁Try":3740,"▁encourage":9777,"ester":8922,"asm":3282,"▁critic":5005,"▁community.":10649,"▁figure":2611,"▁Ro":3036,"▁mag":3264,"▁subreddit.":7021,"ockey":11751,"70":4198,"ises":5392,"acy.":5783,"▁pretty":1591,"▁BUT":9889,"ribly":7272,"▁explaining":8822,"▁is...":8863,"ings":2515,"▁dispro":10301,"16":3927,"▁crash":5593,"ERS":10269,"▁upvot":4107,"▁owned":6878,"▁husband":6586,"▁*you*":9355,"▁THEY":10105,"▁SA":11267,"▁rolling":11477,"▁Damn":3618,"▁turn":2083,"▁politically":11049,"▁listened":11700,"▁moves":11720,"ube":3837,"▁likely":2912,"▁Thanks":2562,"aded":7364,"▁parad":9959,"▁priv":3197,"▁sym":11013,"Ϡ":377,"▁where":1576,"oes":4972,"▁\"E":6484,"jud":9474,"▁Grand":10617,"ル":822,"▁impossible":5012,"64":5270,"illy":3773,"edit":5663,"▁men.":8094,"▁explos":8334,"▁fail.":8602,"▁genuinely":9791,"▁felt":4336,"▁programmers":8325,"▁Vir":9390,"▁testing":10083,"▁hip":6227,"▁went":2325,"▁|":3563,"▁THAT":4760,"ー":828,"▁DV":6232,"▁btw":8995,"▁Inst":5615,"yl":5639,"▁however,":5768,"τ":369,"ubs":8914,"▁Hillary":6325,"ر":483,"▁Beck":6371,"uring":2478,"uc":2085,"▁consent":9789,"▁Elect":10284,"▁annoyed":11719,"▁gays":11774,"▁gay":2568,"▁slavery":9839,"sy":3010,"ite.":4012,"that":3437,"▁incent":10696,"果":929,"iz":1385,"▁definitely":3006,"▁context":4004,"▁evolution":5298,"ilari":6792,"▁Regard":9245,"▁e-m":10952,"really":6321,"ect":1410,"▁name,":8127,"/2009":9019,"on't":1172,"▁Pay":11347,"▁sister":6887,"ONG":9575,"atell":11468,"▁ugly":6575,"ator":2603,"▁\"re":8036,"▁accus":11190,"▁Univers":6876,"OX":9048,"▁El":7525,"▂":632,"▁sense.":4434,"uzz":7756,"ught":2512,"┃":606,"▁mo":1152,"▁lol":3206,"▁human":2277,"▁bag":4040,"▁punch":4919,"▁nobody":4052,"▁fish":4992,"▁cous":8784,"▁creative":10629,"▁Steam":10937,"ies.":2216,"▁training":8122,"▁inaccur":10994,"▁kills":7578,"▁separate":6700,"▁them?":4805,"▁propert":8096,"▁exactly?":10310,"▁(f":7093,"aster":2731,"▁option":4420,"orge":4737,"▁politicians":6981,"oph":2982,"unn":3817,"▁sol":2416,"65":7521,"▁cool":2293,"▁Florid":7954,"▁cities":8150,"ins":2779,"TH":4665,"▁fort":8204,"▁17":5785,"▁Budd":8735,"▁cultural":9069,"uel":3806,"▁highlight":10135,"▁girls.":10347,"▁tattoo":8777,"▁ill":2444,"▁frust":8087,"手":908,"▁rh":6063,"▁Del":9717,"▁Republic":3156,"▁Of":3071,"▁eith":2067,"▁lack":3281,"▁case,":5158,"하":994,"▁dest":3357,"▁SU":6237,"▁BTW":7356,"▁simpl":7496,"や":772,"ain,":6335,"aire":11304,"▁screenshot":11557,"▁emergency":11230,"▁coke":8272,"▁vap":11984,"ensive":3342,"▁part,":10332,"➡":715,"▁Poor":9887,"▁cut":2574,"⠑":720,"▁surround":8584,"̫":268,"▁delic":5949,"Ask":9591,"ilities":6730,"-3":7843,"gency":9234,"▁conduct":9700,"▁over,":10223,"▁wast":10322,"▁Also":2125,"▁million":3323,"प":514,"▁sac":7957,"▁&gt;*":10215,"▁truth.":7276,"▁there":1268,"▁week.":6010,"CA":9631,"▁Other":4940,"▁bandw":8305,"http":10079,"▁cannot":3139,"▁Squ":10792,"ences":5035,"▁can't":1499,"Ð":126,"マ":817,"en":1027,"AC":4363,"▁winning":8444,"oor":5981,"▁[P":1013,"ker":8668,"▁pix":8907,"«":106,"▁n":1050,"!":5,"▁themselves":3476,"▁problems":3974,"a!":4706,"i.e.":9368,"▁analysis":11614,"ous,":3941,"}":95,"photos":6247,"ormon":7712,"/0":2684,"ant.":3539,"▁description":9036,"nd":1181,"▁listed":9729,"▁fine":3581,"▁pure":5105,"▁bes":6300,"▁both.":8243,"▁tw":1592,"----":3747,"imdb.com/":7598,"▁DRM":8191,"▁pussy":8919,"▁sty":8124,"▁fle":9230,"▁tort":4668,"▁potentially":11169,"▁blank":7735,"▁teachers":10045,"▁circ":3534,"ush":1903,"▁Not":1624,"▁o":1038,"▁sure.":5623,"uls":8479,"▁area":4877,"▁real":1542,"▁homes":11177,"▁anybody":5291,"_m":6233,"house":8047,"▁Fall":8476,"aver":11312,"ァ":784,"▁script":5353,"▁insp":10402,"oc":1646,"aud":4503,"ately.":9249,"▁geek":9810,"▁episode":5775,"▁people?":6631,"▁top":2250,"▁;-)":6594,"▁Too":4332,"osexual":5168,"▁options":8758,"▁republic":4662,"aj":10747,"▁program.":11674,"000":2018,"agn":6849,"▁studies":10206,"▁\"In":10256,"zen":6362,"orry":2111,"▁quite":2196,"▁class":2407,"▁Saf":9795,"ber":1407,"▁else":1942,"▁python":11696,"▁planet":5731,"▁Couldn't":10651,"ary":1649,"▁langu":2496,"▁pred":4707,"▁female":4226,"▁ago.":3543,"▁born":4138,"▁cares":6526,"▁heavily":9714,"⠇":717,"▁vide":1983,"▁he's":1937,"▁machine":4702,"∞":585,"▁suck.":8621,"yth":4014,"▁part":1495,"▁boss":6553,"▁integr":7373,"▁Palestinians":6821,"▁terrorist":6329,"▁gir":1724,"▁feels":5500,"ibility.":9924,"▁work?":7119,"pan":10106,"▁choose":4120,"▁here?":6292,"▁insan":6358,"▁loc":3001,"▁quick":3210,"▁checked":6619,"sequ":5567,"▁black":2257,"▁\"pro":10075,"▁Saud":9315,"▁described":8725,"▁politics.":10314,"▁bec":5531,"itute":8073,"▁behavi":8141,"▁rad":3820,"rav":4763,"▁Key":10954,"unction":10136,"▁Clint":4933,"▁trolling":8151,"▁spirit":8583,"▁yours":7708,"œ":188,"▁ago,":5180,"▁*N":11318,"works":9771,"icated":5309,"s:":6494,"▁album":4970,"▁automatic":11251,"▁monster":11764,"▁ip":11868,"▁review":5526,"ez":11884,"▁prot":2549,"▁popular":3606,"▁pref":11587,"汉":931,"▁rights.":8825,"▁screaming":9879,"▁However":8633,"時":921,"▁tob":11628,"-1":8349,"ance,":5020,"rs":6626,"▁between":2226,".com/":1434,"▁found":2190,"▁me,":2492,"▁typing":8039,"▁cas":2626,"ü":166,"▁way?":9471,"▁Swe":8724,"uss":2037,"▁random":3591,"▁welf":10127,"̡":258,"▁content":4535,"icient":4920,"▁presidential":11074,"▁Hu":6837,"icorn":11262,"▁sarc":3814,"organ":9894,"▁(or":3595,"▁eth":5026,"▁legit":5331,"ed":1039,"▁surf":8270,"▁3,":11204,"▁eaten":10266,"▁ske":6868,"▁grammar":5651,"inary":5758,"way":1390,"▁delet":11043,"▁able":2318,"▁Id":6750,"∩":588,"estin":4254,"eds":7740,"▁liter":3913,"M":47,"ai":5002,"▁und":5961,"└":609,"let":1426,"▁They're":3162,"imal":6946,"title/tt":8493,"▁du":9876,"б":401,"道":967,"▁hopefully":9386,"▁remem":9685,"▁fault":4556,"▁Bob":7921,"inction":10987,"ζ":355,"▁Found":11227,"▁way,":3841,"▁correctly":9699,"▁days.":4962,"▁economics":9945,"HA":3205,"▁problem":1721,"UL":7216,"amaz":7974,"ia":1415,"▁Can't":4978,"istan":5944,"▁proven":6896,"▁especially":3447,"▁intellect":6516,"▁myself,":7754,"▁pen":2681,"itor":5019,"▁offered":9071,"images.":10514,"▁hunting":11335,"out":1099,"▁his":1370,"x.":7781,"▁Iron":10482,"▁student":5218,"itution.":10050,"▁*do":11817,"▁Trek":10886,"Ч":398,"▁states":4268,"▁online":4546,"OOD":11590,"OW":3643,"`":66,"png":4966,"ary,":5711,"ers\"":9582,"▁toss":9645,"ń":184,"▁leave":2965,"▁justice":8164,"ology":2985,"▁sir,":6967,"▁epic":8374,"▁cru":9944,"bered":11474,"▁unt":2079,"etary":10002,"▁blind":4949,"▁adop":7255,"aha":10060,"▁Pakistan":10742,"▁greatest":6463,"&":10,"͍":298,"何":851,"и":408,"▁experi":2581,"se.":2695,"EN":3238,"rodu":5038,"▁education":5684,"▁places":4801,"ian":1485,"▁elect":2327,"▁thinking":2354,"▁line":2921,"▁now":1441,"▁fem":3146,"▁assumed":6925,"▁interesting.":6600,"▁banned":7107,"▁answer.":7474,"am,":7846,"▁highest":8126,"▁MP":8255,"is":1021,"▁apart":4550,"त":511,"▁understanding":5575,"erg":8264,"▁pushing":8586,"▁rise":9497,"▁theft":10230,"rend":10555,"а":400,"ū":192,"▁added":5533,"▁mal":6951,"▁chap":11120,"ร":537,"ved":1819,"ucking":9658,"▁rest":2187,"▁Ubuntu":6695,"er\"":7645,"▁holy":7325,"▁food.":7504,"gg":1969,"▁submission":5528,"**":1585,"gr":1669,"-st":4943,"▁rich":3744,"vote":2559,"St":5217,"ress.":6424,"gov":7038,"rete":11855,"▁ram":9505,"▁turned":3985,"irst":1513,"▁years.":3225,"‫":561,"▁DON'T":9585,"gam":10785,"Æ":120,"▁later.":7565,"北":863,"▁European":7130,"▁hate":2038,"or":1028,"uck":1288,"【":732,"▁logic.":11056,"▁bomb":4446,"ition.":5395,"搜":910,"▁nam":2694,"▁porn":3154,"fuck":4170,"▁world.":3864,"▁emb":5009,"▁tom":5176,"undred":4182,"?)":5577,"?q=":6655,"gif":7167,"▁SC":8318,"▁misunder":8598,"exper":11588,"room":3711,"▁rout":5876,"▁Cour":8733,"▁harder":6112,"▁Tom":7258,"▁Ford":11270,"▁continue":4723,"i_":8897,"▁rec":1854,"▁s":1011,"unte":9259,"▁country":2234,"idd":2468,"Th":2680,"self":1586,"▁Ugh":9448,"ugg":6495,"▁***":6547,"ق":493,"▁'":1593,"▁term.":11264,"¥":102,"▁absolutely":3504,"ories":4618,"▁industry":5279,"IA":5560,"ivil":3212,"░":641,"▁civil":3439,"▁Dude,":5322,"▁count":1684,"▁applic":4863,"omen":4274,"adem":8291,"▁\"the":4451,"trl":8475,"▁Hahah":9689,"she":11029,"▁be.":4406,"▁stress":9697,"政":912,"▁ed":1976,"▁crime.":8974,"▁[s":6884,"▁utterly":10410,"ع":490,"▁helping":7238,"▁karma.":10318,"▁Are":2108,"▁recogn":4569,".com":3565,"▁1st":9790,"▁blast":11285,"▁models":11219,"▁Dear":6935,"state":9915,"SD":6363,"▁annoying.":10627,"▁four":3990,"▁(for":8231,"_D":11079,"▁medic":5766,"▁adding":7541,"▁exercise":9519,"▁refused":11164,"▁anymore.":5119,"예":989,"▁stamp":11044,"▁veh":6615,"▁Personally,":8726,"▁ruined":8327,"▁ideal":8945,"▁is.":2583,"▁curren":7370,"▁Paulson.":3670,"▁dial":7563,"/)":3178,"lines":8252,"▁Haskell":8440,"cause":1309,"▁issues":4888,"ing!":8846,"writ":10119,"▁fault.":10533,"It":10743,"͕":306,"▁home":2308,"itle":5692,"▁\"We":8092,"ocr":2992,"/c0":4774,"▁Mur":9216,"波":933,"▁shop":4197,"http://www.":7464,"INK":11428,"▁humor":5744,"▁Iraq":3624,"▁kids":2625,"▁yourself,":8881,"-l":3607,"▁plus":6120,"▁well-":9276,"▁\"m":4053,"rob":9344,"▁funnier":10707,"etically":11046,"▁\"good":11899,"▁Let":2671,"uming":7994,"す":748,"▁Mexican":11281,"▁app":1645,"♜":699,"▁Pro":2538,"▁Hopefully":8175,"▁(I":2971,"▁absolute":7301,"▁basic":5201,"▁idea,":7099,"▁const":2781,"pic":4589,"net":3029,"▁thanks":3452,"▁orig":2517,"ilt":3526,"▁minds":9408,"i?":9318,"▁bloody":10099,"▁several":3598,"▁Better":6199,"▁Right":3498,"▁place":2343,"↓":573,"▁along":3415,"▁Sl":6210,"vie":1940,"ument":2075,"ager":6853,"▁bothered":8062,"▁disturb":6894,"00":1296,"o's":8766,"▁thousands":5409,"▁cons":1640,"▁Red":1882,"▁discussion":5370,"▁)":6757,"▁writes":11978,"ires":8582,"▁which":1554,"個":854,"▁owner":8887,"Γ":332,"▁\"g":5029,"▁tell":1709,"▁sorts":9473,"ion":1084,"▁\"S":3380,"▁standards":7809,"▁dram":10965,"▁brings":8244,"▁rating":9299,"▁nowad":11075,"▁mess":2734,"▁Bush":2682,"ible":1692,"क":510,"̇":233,"▁before,":6739,"▁title.":7513,"press.com/":10613,"A,":7263,"](http://en.wikipedia.org/wiki/P":11478,"ograp":10858,"-M":5592,"sem":6085,"▁Det":9799,"▁Christians":5503,"▁putting":4234,"▁relax":10669,"▁pie":3074,"▁wrong":1745,"▁school.":5462,"▁“":6294,"▁awkward":7343,"▁fet":6540,"uy":10160,"▁Source":10964,"▁legal":3126,"ack.":5870,"▁atheists":5811,"▁FL":11263,"ury":4057,"uts":6766,"know":7588,"all":1097,"▁equip":9332,"d":70,"כ":453,"▁Alask":9726,"▁anything":1770,"nes":10030,"צ":462,"▁that...":6519,"▁lifet":10316,"zz":3938,"▁Ag":6230,"▁immediately":5859,"▁caus":10934,"▁det":2638,"itty":3805,"▁among":4993,"▁goal":6805,"▁focus":6973,"▁money?":10177,"▁Rem":4128,"▁P":1175,"ring":2933,"▁rang":10462,"▁Agre":4383,"▁legisl":7049,"arcasm":7267,"father":9655,"▁weeks.":10633,"▁project":3954,"▁about?":5620,"▁spons":11080,"here":1604,"▁two":1738,"▁bars":10822,"▁trained":10175,"▁vict":4458,"▁Both":5820,"▁vote.":7937,"を":781,"▁assum":2335,"▁lim":3167,"▁happened.":7480,"▁hey":8759,"▁liquid":10118,"ur.":10931,"▁action":5079,"▁Congress":7041,"▁Ah":4814,"▁pro":1199,"▁Here":2818,"rug":6331,"▁White":6171,"▁outs":8941,"▁shoes":9093,"▁lar":2410,"▁HT":7355,"▁study":5979,"▁course.":6136,"▁lic":4744,"3%":11818,"ge":1491,"想":901,"cc":2317,"͡":318,"raph":3340,"▁third":4283,"y!":7086,"roid":8406,"▁weird":3419,"▁chip":9054,"ators":5337,"私":944,"they":7526,"arly":2209,"OD":4621,"ザ":797,"▁limited":6799,"王":934,"▁learned":4413,"ast.":7209,"⊂":597,"p-":7891,"▁supports":7927,"▁acceptable":7684,"▁Mr":8947,"ctor":9290,"▁And":1427,"▁lip":11833,"▁uh,":11856,"▁increased":10288,"oosh":11981,"▁Fire":3897,"▁school":2033,"▁phys":3385,"▁mix":4876,"night":10068,"▁The":1139,"rough":9486,"▁saw":2409,"rid":9966,"▁discovered":7307,"▁through.":9884,"rog":5638,"8/":5166,"▁too.":2071,"▁racist":3948,"▁Di":10132,"▁NOW":9072,"▁Typ":10832,"╔":618,"¶":112,"▁PL":8462,"▁have,":8783,"╥":624,"er's":4476,"idering":8674,"▁mart":10703,"▁Da":6448,"ohol":4370,"/her":11701,"ances.":11040,"▁23":9316,"ford":9954,"▁english":7508,"▁breakfast":11508,"▁Expl":7461,"ternet":1950,"▁suit":6728,"ど":759,"▁pull":3109,"▁links":5179,"iring":6101,"▉":638,"▁gone":3999,"▁talking":2080,"▁ret":2138,"▁caught":4745,"▁lazy":5807,"▁capital":3930,"-)":6054,"▁Love":6652,"▁depart":6976,"▁doesn't":1496,"▁Um,":7964,"flickr.com/":6891,"bama":9652,"▁did":1292,"aul":2063,"27":6459,"US":3556,"▁fa":4219,"▁books":4690,"9%":7104,"▁areas":8070,"berg":7829,"▁don":3907,"ain":1208,"▁Stop":4779,"uge":10788,"▁why":1462,"▁HE":6055,"▁hour.":11734,"▁finally":4555,"▁differe":1688,"▁mean":1512,"▁mean.":6866,"▁facts.":11705,"es":1033,"▁americ":4239,"agram":11730,"▁upvotes":7882,"▁heav":4817,"▁bas":1846,"▁She":2090,"▁either.":3570,"-in":4296,"ative":1945,"ͅ":290,"र":518,"▁pron":5341,"▁0.":6614,"▁colour":9705,"▁Arm":11334,"▁running":3093,"ll":1037,"▁as":1128,"/11":3993,"/p":4061,"](http://en.wikipedia.org/wiki/":2355,"▁unable":8461,"▁row":11996,"ING":2499,"ounce":5664,"nt":1241,"▁assert":8050,"y\"":6924,"▁sect":7824,"▁atm":9797,"▁vari":5275,"▁ridiculous.":7626,"▁hyper":8331,"▁genius":9736,"▁so,":4225,"▁$2":7815,"彼":893,"▁products":7463,"P]":1007,"ine.":2821,"ising":3479,"▁fool":4664,"▁daughter":7298,"▁comes":2629,"urt":2944,"▁deserves":7176,"▁strateg":11607,"-t":3334,"▁man's":8653,"▁conscious":8393,"▁margin":11336,"▁lets":5719,"▁damm":11439,"land.":8675,"▁entitled":10768,"viet":8006,"▁society":4403,"Y":59,"about":6914,"▁user":3844,"iki":9952,"ver,":11980,"board":3410,"▁though,":3396,"▁apparent":7168,"ves,":7498,"▁apologize":10149,"▁pri":2551,"ants":2989,"▁Barack":9709,"▁[Here's":11233,"▁Sup":4487,"▁Val":7696,"arent":1961,"ked":3192,"▁See":4185,"▁meas":4671,"▁Cor":6769,"▁*C":10553,"▁through":1917,"▁thr":1704,"▁examp":2754,"î":153,"NT":8230,"vil":10178,"arn":1884,"9/":6208,"▁invis":11130,"onn":2614,"▁people.":2751,"▁Jon":7676,"▁businesses":11693,"ィ":786,"▁IE":5399,"▁Ass":5864,"MS":10023,"▁nightm":10104,"▁gut":11194,"个":833,"▁wrong?":8889,"▁NAS":9369,"▁tastes":8031,"▁published":11410,"ways":1650,"iment":5220,"╨":626,"▁fut":3235,"▁Kucinich":7572,"▁we're":2714,"▁wolf":10993,"͑":302,"├":611,"▁intern":4893,"well":5547,"▁lines":5287,"&amp;":1896,"ades":5710,"=1":5760,"▁arrest":4857,"▁control.":9698,"images/":7088,"H!":9237,"▁those.":10415,"ш":424,"▁hair":3633,"▁remains":10496,"olt":10528,"▁Nove":11598,"▁city.":11287,"当":892,"▁ir":2467,"▁shower":9599,"ause":5695,"▁at":1198,"▁YOUR":6379,"ִ":437,"▁over":1442,"ray":4382,"la":7552,"▁Uh,":7910,"▁*P":10122,"ay.":4660,"ones":3673,"ttp":1232,"▁laughing":6491,"▁sin":7805,"▁tree":7363,"▁leader":9620,"▁demon":5858,"utch":7616,"▁z":2463,"CK":2577,"▁corn":4450,"▁awesome.":3675,"▁legally":8061,"▁circumst":8362,"▁Reagan":11695,"▁Plus":7113,"icted":5569,"▁benefits":7877,"▁pink":9214,"pa":11982,"1.":3923,"▁Canada.":8559,"Ex":8734,"asp":3963,"▁needed":3863,"▁depress":4906,"▁911":10498,"▁[S":4722,"▁introdu":6531,"▁during":3070,"▁camera":5544,"ital":2528,"▁http://imgur.com/":5576,"▁business":2988,"Г":383,"itude":5868,"does":7852,"▁searching":10905,"ˌ":224,"▁\"He":8565,"ined":3464,"6/":7690,"▁america":11939,"74":9317,"▁valid":4533,"▁fanboy":11022,"▁trut":11001,"▁restr":10170,"php?":4883,"us.":3883,"ada":8373,"▁anyone.":9122,"▁protest":5420,"▁forever.":10664,"bled":11388,"road":9897,"▁three":2939,"arant":5908,"▁while,":10140,"▁source":3287,"▁democr":3669,"▁experim":10819,"▁sci":2265,"▁Funny":7450,"ism?":8891,"▁weed":5930,"▁backup":11633,"▁soon":3718,"▁didn't.":8618,"ibly":2999,"h,":1762,"du":1822,"ends":3124,"▁[A":5242,"C":37,"NN":4934,"▁Hope":5582,"▁Res":6150,"▁dump":6365,"rock":8222,"▁prost":8723,"▁general.":11023,"-for":9715,"▁pers":4802,"ade.":8012,"bit":3966,"▁int":1323,"▁think.":5137,"▁circumc":8827,"▁Pat":9735,"ence":1509,"u.":7300,"although":11957,"▁daught":5308,"ull":1612,"▁Sometimes":5340,"Т":396,"▁sorry":2966,"▁brand":6269,"ŋ":185,"▁teaching":7403,"▁shell":7803,"▁achieve":7922,"stal":9702,"ͨ":324,"▁PS3":9817,"▁concert":11626,"my":2904,"iter":2861,"語":959,"▁held":6142,"▁lame":6964,"▁opinion.":6734,"▁Light":10505,"▁\"f":3348,"▁rac":2454,"▁kinds":7003,"▁Hard":7316,"▁cann":7721,"ɾ":213,"ג":444,"▁fam":2314,"光":856,"▁dep":2353,"▁judg":6810,"▁anyways.":11383,"appy":4527,"▁cousin":11124,"▁seeing":3474,"▁habit":8988,"が":739,"with":5425,"Ø":133,"▁couldn't":2748,"▁fixed":6049,"hold":6539,"ans.":6711,"▁providing":9574,"▁expression":10951,"▁battery":9217,"ingu":8324,"▁Ever":6389,"or.":2424,"▁tool":3924,"ounced":7134,"▁website.":9875,"▁ground":4310,"Л":389,"▁parent":2708,"▁dro":4575,"▁parking":9436,"▁it":1064,"▁this?":3364,"▁receive":8149,"▁Using":9526,"▁straight":3548,"▁shape":8997,"BM":11330,"▁5":1792,"나":980,"☃":672,"▁comments":2673,"idence":2785,"at.":3002,"ouch":3204,"ites":3995,"GB":6993,"iff":4862,"▁T":1070,"▁Jan":10336,"▁off.":3641,"alu":9961,"▁20":2458,"▁WE":6705,"書":922,"▁tag":5459,"▁sh":1151,"T":54,"▁Win":8180,"▁(h":7789,"▁guitar":8205,"▁jews":9511,"▁intend":9739,"▁hearing":6320,"ff":1347,"voted":2377,"▁$10":7159,"▁out,":4026,"В":382,"ides,":7335,"▁Y":1140,"▁worst":3686,"........":7439,"ander":7826,"▁scientists":8068,"▁\"Ch":10960,"л":411,"▁detect":6420,"▁ok":2655,"▁Can":1848,"▁man,":3959,"▁accurate":6244,"ending":2518,"╣":622,"google.com/":4874,"rely":5048,"ض":488,"▁around":1723,"ə":205,"わ":780,"used":2803,"▁interact":9360,"▁period.":10799,"bec":11928,"▁budd":5004,"▁E":1250,"itarian":9131,"▁200":2553,"▁much,":6573,"AND":9244,"▁serve":6974,"ͦ":323,"ATE":7579,"▁once,":8352,"▁bath":5757,"▁bacon":5061,"▁Captain":10233,"▁lol,":11238,"ubb":11391,"ollow":11512,"▁applies":8885,"▁dropping":11632,"va":11865,"▁Indian":7575,"▁Microsoft":4218,"ading":5660,"asturb":5679,"▁amazing.":7469,"▁gaming":8355,"▁house,":9132,"▁it.":1392,"▁tit":2740,"▁feeling":4023,"▁whore":6938,"▁weird.":9453,"▁Haven't":10195,"▁Hom":10716,"▁coverage":10376,"ys":2142,"▁racial":10587,"▁YOU":2709,"▁Only":3395,"▁program":2835,"͏":300,"е":405,"☐":677,"▁ten":4716,"iness.":5818,"▁tap":6103,"▁York":6209,"▁wake":6962,"▁job":1975,"͓":304,"gor":7467,"▁lady":6515,"れ":778,"▁goog":10194,"▁top.":11531,"ork":2228,"▁eleph":11662,"ی":507,"▁powerful":6159,"pop":8256,"▁minute":5624,"▁McCain":3110,"▁prob":7400,"☹":686,"ese":2143,"▁dat":3100,"ases":5741,"▁began":10851,"▁Pir":10691,"▁bar":2834,"iful":4297,"imedia":11530,"に":761,"▁maintain":7311,"े":527,"▁adds":10972,"vey":8523,"▁reference.":8868,"auc":9611,"▁policy.":11694,"ender":5065,"▁promote":11672,"ional":3043,"▁site":2907,"ص":487,"▁glo":11934,"▁No":1452,"▁hint":9406,"▁instance":10687,"▁battle":8378,"box":4402,"▁glass":5049,"▁enjoy":2755,"▁exists":7028,"▁clothing":11085,"▁Family":11992,"▁2009":8775,"IVE":10487,"▁Lisp":9098,"▁yell":4982,"ator.":7778,"▁welfare":11037,"▁insulting":11816,"▁Car":4583,"▁rev":4643,"▁equival":6236,"...":1153,"!\"":2541,"ology.":6917,"▁Log":10921,"▁what's":3032,"▁t-shirt":10074,"▁digital":9075,"▁such":1935,"▁dism":7592,"▁path":4981,"ù":163,"▁her,":6689,"◄":661,"mail":6035,"▁pat":3261,"▁WW":6605,"▁around,":8892,"▁well?":10057,"▁largely":10590,"▁ripped":11189,"▁Jesus":3119,"▁software.":10962,"att":2419,"̵":278,"▁Keep":5653,"▁ready":5946,"▁nons":6613,"▁programmer":7184,"▁merc":9818,"▁Guess":7700,"▁prove":4321,"obs":10504,"lymp":9171,"▁admitted":9678,"▁instruct":10636,"ographic":11469,"'T":5602,"▁difference.":7110,"▁revolution":8743,"ement":3299,"](http://www.google.com/":10926,"▁grav":7186,"χ":372,"▁Absolutely":11482,"▁wal":4302,"P":50,"▁wins":10438,"▁sust":10757,"◕":666,"▁stopping":9969,"▁driving":4620,"igslist":11951,"▁written":3653,"▁grant":10593,"▁ener":4066,"▁season":5230,"▁innocent":6360,"▁saf":4529,"▁lap":4514,"▁out?":6968,"▁end,":10688,"..":1075,"▁customers":8607,"▁children,":10519,"▁have?":11926,"̨":265,"▁pan":5101,"▁existing":10072,"▁[This":6455,"任":848,"ic,":3636,"▁statement":3763,"▁you'll":2996,"en.wikipedia.org/":1994,"ability":4414,"▁asshole":4695,"DO":1056,"bay":10341,"aaaaaaaa":11611,"AN":2447,"▁possibility":8528,"▁pattern":8081,"am":1096,"int":1363,"▁Fr":2481,"▁not.":2855,"▁Digg":5135,"▁exist.":6767,"unes":8293,"▁Much":8426,"▁death.":7750,"▁pick":2862,"п":415,"▁Ste":4587,"▁OM":6474,"▁Same":4489,"▁HD":6970,"▁universal":8446,"otic":7451,"▁Sc":3639,"_to":7490,"iger":8695,"aw":2059,"▁current":2812,"▁ye":6022,"▁history.":7628,"osed":9281,"icing":9220,"▁feelings":9441,"▁subtle":9974,"ias":11894,"▁You,":11966,"photobucket.com/":10640,"ニ":811,"▁male":4431,"gar":5460,"▁puss":5559,"UST":7106,"▁scene":6336,"b":68,"look":6667,"▁isn't.":8552,"▁hmm":8580,"rific":10950,"ise,":5475,"▁brought":5067,"▁here's":6523,"▁wrap":11945,"め":769,"▁the":1015,"ish":1422,"vere":7264,"▁IN":3871,"▁Now,":6596,"arc":2712,"▁Yes":3374,"ournal":5551,"▁expos":8572,"▁often.":10152,"▁story.":5072,"▁Power":10384,"▁*w":4996,"▁Half":8433,"▁least.":8661,"irth":3782,"▁there,":3849,"itter":4148,"ler":3095,"reddit.com/comments/":9196,"▁Many":5805,"▁money":1904,"▁value":4322,"▁scare":9730,"AP":5194,"ब":515,"▁XP":7391,"38":8208,"ase":1515,"▁debate":5622,"▁gramm":4582,"ORE":7453,"▁thoughts":7901,"ments.":11424,"▁:p":11452,"▁Having":6642,"orn":1722,"[":61,"ery":2848,"▁Dawkins":11836,"▁space.":9542,"▁them.":2039,"amn":2005,"▁East":8310,"h...":6943,"fully":3291,"▁bann":4850,"-5":8332,"SE":1006,"▁wor":1196,"illion":2533,"gree":5446,"▁thread":2342,"▁Abs":7058,"DS":8628,"▁fantasy":10163,"▁alot":9272,"lic":1670,"▁ratio":10776,"▁Uh":8647,"͘":309,"▁rock":3133,"Wh":3884,"Ó":129,"\".":1752,"▁spot":5873,"employ":7187,"▁FF":7422,"▁Good":2422,"ha":7492,"▁for.":4742,"▁hell":2181,"▁positive":5781,"▁cats":7181,"▁famil":9090,"▁doesn't.":9304,"▁Play":9534,"א":442,"king":1314,"▁cr":1517,"春":918,"╗":619,"▁immedi":4625,"ashing":5700,"ley":5837,"▁particularly":5985,"▁corner":8455,"itive":3293,"▁record":3446,"album":9528,"▁complicated":9605,"hhh":9994,"▁(F":11406,"▁remotely":11158,"▁(even":11971,"▁Hann":11986,"▁bod":5182,"icy":7567,"▁edit:":3542,"▁:/":7241,"▁ran":5177,"sex":8767,"▁If":1354,"only":7132,"otten":8091,"А":380,"ross":2608,"▁lucky":6417,"▁Bon":11501,"▁lock":4847,"▁sour":2654,"▁Buy":8803,"▁doing":1892,"▁mort":7117,"except":10583,"お":737,"_0":10087,"▁assume":3515,"▁parag":8563,"y.":1272,"▁final":6524,"▁*any":8806,"‭":563,"▁11":5187,"▁servers":8617,"▁holding":5562,"卐":865,"▁I'll":1881,"▁tru":2341,"▁completely":2524,"_":65,"nces":5879,"▁works.":5905,"▁south":6942,"▁news,":8665,"▁tele":7801,"▁book":2103,"▁neut":7744,"line,":10513,"&gt;":2351,",":16,"▁its":1673,"▁disab":8993,"▁dr":1693,"fw":10542,"▁near":3531,"E!":10275,"̥":262,"for":2772,"aces":6503,"LL":2368,"umn":10816,"in,":4734,"ining":4359,"effect":10509,"▁insane":6899,"▁opened":9025,"▁bands":11678,"imdb":7548,"500":9326,"▁state.":7078,"▁Dar":8898,"Я":399,"▁moder":3613,"▁reminds":6423,"ous":1286,"▁occup":6992,"▁accepted":8946,"▁practical":9671,"▁http://en.wikipedia.org/wiki/":3343,"▁forgotten":10173,"▁chose":7493,"ne":2289,"ickr":6096,"▁True":7663,"▁Mod":8377,"tin":8741,"▁ultimate":10425,"reddit.com/info/6":10461,"▁whining":11862,"▁mostly":4084,"inu":2438,"▁willing":3916,"▁California":7135,"it,":3458,"▁lies":7617,"▁punishment":9319,"▁agreed":9235,"▁discuss":3157,"ral":2963,"▁Inter":11222,"▁canc":5081,"▁eff":2146,"mother":10515,"▁Less":11400,"▁bark":7764,"▁'p":11536,"▁Court":11826,"▁himself":3720,"aves":5054,"▁learning":6058,"▁doctor":5432,"▁dual":11692,"es?":2605,"](http://www.":1540,"ient.":9373,"▁Ins":9902,"](http://en.wikipedia.org/wiki/M":10767,"AKE":7112,"会":849,"▁seemed":5538,"▁summer":7438,"▁there's":2140,"▁sets":10949,"itten":3232,"▁technical":8474,"▁exact":2011,"▁marri":3765,"▁really.":5098,"▁10":2124,"▁in?":7956,"▁stock":5380,"▁ignoring":9713,"ites.":9946,"▁anti-":3250,"▁Chinese":5572,"▁Religion":10982,"en-":9570,"▁or":1178,"ived":4936,"▁alternative":5917,"ish.":6111,"▁noise":10192,"▁bed.":11819,"▁part.":6490,"▁Whether":10452,"PG":6694,"▁times,":7359,"▁nice,":9200,"ɟ":207,"▁assh":2916,"▁show.":6701,"▁therefore":5555,"think":6415,"ius":6123,"得":896,"▁go.":5537,"os.":7602,"▁stick":3253,"flickr.com/photos":9039,"▁reminded":9971,"▁of?":11252,"▁Now":2222,"▁brief":10271,"ally,":3880,"▁Being":5539,"▁because":1351,"J":44,"annel":5466,"bed":3696,"▁month.":8458,"▁video,":9057,"▁enlighten":11559,"û":165,"ans":1378,"▁good":1408,"▁None":8518,"✱":714,"て":756,"▁YE":11205,"gb":11593,"▁what":1217,"▁ironic":8018,"aved":10566,"▁Wow,":3448,"▁Phil":9535,"▁corporate":6152,"D":38,"ɛ":206,"▁Actually":2532,"_c":6043,"▁systems":7000,"▁ve":2990,"▁disgust":5434,"▁[R":8544,"▁Fair":7883,"ience":5690,"gl":5514,"arden":10418,"▁propos":8657,"▁meal":11488,"ious.":4220,"⌥":602,"phot":4294,"arrass":6163,"▁year,":6908,"com/":1320,"▁rates":8120,"=0":9831,"6":26,"▁re":1072,"▁rid":2606,"rel":3057,"ise.":4412,"▁that,":2345,"▁perspect":5860,"imately":7379,"89":8614,"iction":3478,"▁themselves.":6411,"▁charges":9438,"▁Korea":11467,"oud":3153,"▁Remember":5964,"Is":7512,"ternal":7924,"▁pros":10412,"▁YES":10827,"▁stated":7806,"▁base":4882,"▁works,":10861,"▁is?":6507,"▁causes":7244,"▁bus":2290,"▁sun":4843,"▁it'll":6226,"▁republican":7913,"▁tobacc":11977,"ka":6841,"ids":6034,"▁was":1120,"▁mist":3286,"▁properly":7317,"▁uns":5455,"▁we'll":4990,"ees":5749,"▁fl":1666,"▁dec":1873,"▁universe":5513,"-b":2596,"▁Pl":2974,"͚":311,"\\":62,"ger":2200,"ously":5636,"ͪ":326,"▁Canada":4500,"PS":6195,"shit":6646,"▁article,":6662,"isc":4260,"-old":6598,"▁laughed":7271,"▁watch":1857,"▁fighting":5943,"▁days,":8239,"▁stud":2457,"ored":3430,"▁(c":8752,"▁backward":8958,"▁hatred":9351,"▁though?":9444,"ually":1361,"](http://www.c":10033,"▁incomp":7640,"▁ISP":10729,"roph":8727,"▁'f":8815,"▁after":1675,"▁Jeff":10551,"orry.":5396,"▁conservative":5546,"▁done,":9270,"▁at.":9673,"▁ways":5160,"▁Shut":11086,"▁laid":7197,"able":1454,"▁friends,":9147,"lf":1447,"▁me.":1829,"▁clean":3784,"▁st":1102,"▁40":3986,"arijuana":5972,"▁fict":10225,"▁lit":10766,"▁North":5481,"esome":5628,"▁don't,":11560,"▁back.":4275,"▁id":2372,"▁Interesting.":11882,"▁orange":7959,"▁natural":4825,"щ":425,"▁relation":3964,"▁princi":5982,"▁(l":10829,"▁passing":9043,"2009":5519,"▁then?":5181,"▁suddenly":6956,"▁info":6801,"st":1091,"▁ann":2993,"▁watching":3318,"∫":590,"▁people,":3769,"▁far.":7699,"▁race.":10646,"▁purpos":6645,"▁flesh":11472,"▁reve":7507,"▁Ill":8704,"5":25,"☉":676,"▁cl":1368,"{":93,"▁video.":6272,"▁[c":7329,"_T":11533,"▁rights":3815,"▁Really?":4265,"▁seriously,":7071,"▁Thanks!":7458,"amm":2015,"▁yet.":4901,"▁discrim":8387,"▁insert":11673,"̾":287,"▁SO":6332,"verse":3550,"▁TO":4098,"▁enough,":6275,"♠":703,"ES":2725,"ocaust":7636,"▁wind":2886,"▁hanging":8218,"?!?":8973,"ick.":7629,"▁replaced":9095,"▁yours.":10434,"▁innov":11005,"▁dang":11725,"77":8138,"▁question.":4367,"▁Honestly,":7875,"▁lives":4381,"▁include":5421,"▁replies":11280,"86":5118,"▁backed":11964,"▁Still":4427,"以":846,"ː":225,"▁no.":4432,"▁command":6130,"▁Wikipedia":6175,"▁Perhaps":3975,"▁EVERY":7470,"every":6081,"▁wedd":9116,"omb":2811,"▁investment":10101,"▁Otherw":7361,"GG":7907,"▁gain":7352,"▁switched":10148,"白":939,"54":10236,"▁ordered":10239,"▁invite":10935,")...":10957,"▁insult":4566,"▁acts":9347,"▁picked":6337,"▁incredible":10109,"▁woman,":9629,"▁Absolute":11905,"▁resc":11768,"▁sent":2540,"▁HAVE":8319,"▁a":1003,"▁conserv":4134,"▁Man":2747,"▁Ke":4753,"律":895,"ow":1068,"▁Honest":5777,"▁calcul":6994,"▁syn":7870,"...but":7988,"phas":9692,"▁now!":10150,"▁now?":4562,"esc":7599,"▁*A":7807,"▁driven":10605,"▁Mind":11021,"グ":794,"enc":4887,"estine":11041,"ved,":11462,"▁True.":11586,"igur":11742,"iling":6607,"*,":4497,"ken.":9050,"▁BL":10067,"▁water":2602,"](http://www.s":9139,"▁pounds":10351,"▁related":4869,"▁*the":10093,"▁works":2831,"▁date":5266,"ʃ":214,"but":3609,"バ":813,"▁classes":8290,"▁animals":5739,"▁garbage":8807,"](http://www.imdb.com/title/tt":10085,"▁bullshit":4526,"▁kitch":8860,"▁relationship":4272,"▁2012":10373,"▁box.":10388,"▁suspect":5206,"▁Mexico":10615,"▁balls.":10673,"ushroom":10988,"▁time.":2163,"ove":2359,"ö":160,"ation,":2746,"oid":2815,"▁auth":3254,"▁tax":2241,"▁Virgin":10481,"▁Some":2251,"ealand":10866,"▁dick":3062,"▁yo":11144,"▁Bas":6563,"inist":4181,"ence.":2700,"ï":154,".":18,"OL":2928,"▁har":5120,"▁submissions":9490,"▁trait":9895,"▁necessarily":5708,"▁collaps":9964,"▁element":8542,"▁GN":10928,"vern":1831,"clude":11031,"▁(t":11242,"▁Amaz":6456,"▁artists":11489,"job":5902,"andom":3347,"a's":6991,"▁Stephen":11316,"-mind":11163,"33":4202,"▁le":1283,"-A":5588,"_b":6496,"−":583,"☀":670,"▁mistak":6998,"ʌ":217,"▁hole":6155,"erest":1836,"▁irre":6095,"▁http://":1461,"▁subm":2567,"▁candid":4099,"▁Instead":7019,"bod":8808,"▁ne":1163,"](http://imgur.com/":4156,"ities.":7630,"▁problem?":10433,"̋":236,"▁Sec":6950,"]":63,"▁fewer":10992,"▁Serious":3580,"▁B":1149,"Edit":6833,"▁email":4020,"▁finan":5672,"ě":178,"▁Downvoted":8110,"amily":8685,"▁pizz":5957,"▁approve":11145,"▁eggs":11257,"pass":11914,"▁shall":5208,"▁convers":4072,"▁naked":6761,"▁cart":5084,"▁this:":5085,"▁country,":7488,"▁chin":9478,"▁pitch":9538,"▁ign":2516,"▁produce":6404,"ith":1108,"▁Opera":9564,"-wing":10210,"▁out":1240,"▁stolen":8776,"▁master":6348,"▁lights":8631,"▁Speaking":10925,"▁consistent":11656,"▁correct":2331,"г":403,"한":995,"oss":3224,"ino":6377,"▁college":3742,"view":2926,"▁sure,":6985,"▁enfor":11502,"▁machines":8780,"▁government,":8965,"▁guarant":6589,"ik":1460,"∴":591,"▁Hit":4964,"▁yet":2167,"ラ":820,"▁Which":3056,"▁\"he":7822,"▁tr":1251,"▁unc":7865,"▁and,":8177,"▁property":5725,"▁agreement":11209,"▁Europe":3688,"▁again,":4459,"ought":1494,"ar.":3619,"%.":9756,"き":740,"▁sus":3700,"▁bike":5962,"▁Under":8876,"▁can't.":11827,"▁number":2402,"中":834,"▁road":4011,"ರ":534,".....":4512,"▁despite":6532,"▁later":3723,"pect":1737,"onym":4977,"✈":711,"da":5915,"log":8130,"▁Somebody":10293,"▁roof":10642,"▁wh":1073,"▁1":1291,"▁exerc":6736,"▁win.":7109,"▁flying":6649,"▁Ter":8389,"▁professor":10292,"▁seek":11167,"▁surprised":4029,"hip":5083,"ve.":7703,"▁HA":4267,"▁president":3272,"▁setup":10821,"illed":11682,"▁mistakes":11861,"▁rather":2262,"row":2841,"▁matter.":6530,"▁man.":3601,"iced":3783,"▁plenty":4426,"▁imagine":3338,"▁poll":4351,"▁Inc":8730,"▁sing":2363,"▁first.":5394,"▁minority":9041,"פ":461,"▁situation":3991,"▁um":7344,"▁chill":10024,"▁has":1304,"▁hand,":6217,"world":6997,"▁staff":8980,"▁thank":3022,"▁theory.":10998,"id":1078,"▁down.":3914,"▁Us":4591,"▁place.":4452,"▁limit":5564,"ribute":7269,"▁audience":8465,"▁straw":8153,"▁Ch":1583,"▁Ac":7896,"▁pill":6056,"respons":11985,"keys":10199,"▁mild":10378,"Å":119,"onald":6578,"▁biased":11113,"▁Rom":9516,"▁dirt":8044,"▁alarm":9613,"▁there...":10018,"▁anymore,":11702,"NET":8339,"▁stim":9013,"OB":9324,"部":969,"▁chances":8956,"▁statement.":8283,"▁appears":5822,"▁same":1544,"-le":8095,"▁pieces":8487,"▁luck":3311,"▁contain":7396,"י":451,"▁observ":8154,"╩":627,"▁people":1227,"▁present":5297,"▁control":2877,"▁Most":2798,"▁drugs":5499,"͎":299,"▁progr":2220,"▁OS":3898,"▁opposed":5810,"re":1009,"ies,":3301,"▁said,":3835,"▁cell":4278,"▁entertain":5366,"UR":5776,"▁crap.":6710,"▁bin":10749,"▁epis":4180,"▁2":1394,"bers":4652,"▁libr":5192,"▁eh?":6654,"▁Lo":8940,"▁upside":11284,"▁whenever":6387,"ges":4988,"▁bold":11784,"▁want.":6162,"▁anc":11830,"▁:(":2765,"▁act":1369,"▁pract":3473,"▁species":8925,"▁ass,":10592,"▁'m":11071,"▁Please":3103,"▁MS":4424,"▁apost":10403,"▁job,":6903,"body":1987,"▁depends":5550,"▁America.":6064,"▁detail":4633,"主":836,"▁smart":3577,"▁excuse":5648,"▁best":1890,"72":9819,"ご":744,"▁3":1553,"̲":275,"▁milit":3376,"▁whatso":8932,"▁;)":3214,"55":6826,"▁story":2427,"▁world?":11373,"▁smoke":4343,"other":1578,"ram":4629,"▁$5":5795,"66":6308,"▁altern":4513,"ς":367,"▁joke.":4609,"ja":7395,"▁comment":1564,"▁Totally":11102,"▁well...":11017,"ɥ":209,"▁house.":6831,"▁i'm":3237,"▁voting":4097,"hap":7859,"▁econom":2703,"▁bel":1520,"ls":7062,"ners":11196,"▁men":2472,"▁position":4248,"看":941,"▁Sure,":5687,"☼":689,"arian":3230,"▁kinda":3824,"▁physically":9357,"▁see.":6282,"H":42,"▁celebr":7131,"▁Bull":7303,"▁junk":8484,"▁explan":5330,"riv":6918,"▁begin":3522,"▁controlled":9578,"▁best.":7304,"92":9857,"▁parall":10889,"](http://i":11944,"Red":5476,"¡":98,"姑":885,"▁NSFW":5814,"TV":9295,"▁assholes":7326,"▁waste":4564,"▁un":1248,"▁CIA":8928,"▁OK.":11544,"▁Democr":3979,"▁assuming":5372,"tinyp":10956,"▁mil":2441,"▁wife":3248,"▁okay":5999,"▁doesnt":7952,"ア":785,"⋅":600,"ous.":2462,"▁handle":5342,"▁Des":6669,"ι":358,"▁proper":2796,"▁solved":11524,"▁issu":2903,"▁alread":1974,"iber":8330,"▁eat":2494,"uclear":4588,"▁respons":3138,"▁files":6546,"▁split":8558,"▁awesome,":8739,"х":421,"a.com/":8680,"plan":9392,"▁unf":5470,"▁i":1349,"多":879,"▁we've":5689,"▁Way":6443,"▁pregnant":8942,"▁sim":1798,"b/":7888,"▁from?":6679,"▁technology":5840,"▁beh":2443,"ahah":3502,"▁seems":2054,"▁REALLY":9380,"▁(the":4913,"▁else?":10312,"▁anyone":1861,"▁hob":8363,"▁shout":8792,"▁republicans":8908,"▁time...":11042,"▁oppos":3152,"▁pub":4937,"▁loans":11770,"▁Cathol":11913,"▁Jones":11178,"because":8142,"▁upvoting":11874,"▁teet":11983,"rit":2348,"ental":3623,"字":887,"ц":422,"▁learn":2267,"▁anywhere":4541,"pping":5670,"▁modd":8457,"▁bonus":10815,"▁redund":10901,"gust":5174,"▁losing":6793,"▁laws.":10942,"▁city":4416,"terday":5906,"onna":2951,"now":3694,"▁Everyone":4531,"▁pissed":5606,"▁elected":6885,"◉":662,"̚":251,"flickr":6842,"▁that!":7347,"▁responding":10849,"▁radio":6137,"▁President":4542,"▁Give":5735,"why":6772,"▁rational":5671,"\u0010":3,"▁Phot":8750,"▁scar":11339,"再":858,"▁blown":9820,"_l":9873,"▁pushed":10997,"▁device":7946,"ooo":8664,"▁those":1559,"▁everyone":1998,"ohn":3732,"Ï":125,"▁kill":1810,"▁skill":4472,"▁sc":1572,"ن":497,"▁Long":10025,"▁myself.":5326,"▁whole":2062,"▁posts":4349,"▁Ext":11353,"▁wearing":4496,"▁bad,":5994,"▁e":1071,"し":746,"ブ":815,"redit":10656,"_G":11601,"/b":4700,"╦":625,"▁experience":3294,"inc":4399,"▁hated":7535,"▁precisely":11613,"▁cunt":7010,"┤":612,"▁Americ":1664,"▁Aust":3728,"▒":642,"▁What,":8588,"▁Lou":9292,"pelled":9330,"▁indic":5635,"▁breath":9811,"▁Talk":10111,"ical":1526,"▁few":1815,"▁represent":4525,"trans":10393,"か":738,"s":85,"▁Yeah":1694,"OOOO":3890,"▁stupid":2043,"▁Last":6347,"▁US.":5637,"▁dated":11070,"▁consist":6057,"▁Chicag":7966,"▁far":1995,"ula":10167,"":97,"cript":4369,"▁bigger":5132,"▁influence":8755,"man,":9757,"▁person":1655,"▁cle":1925,"▁appro":3652,"▟":652,"ote":1611,"riend":1613,"an.":2852,"▁CON":10484,"▁shock":5197,"▁children.":7012,"͉":294,"▁crimes":8037,"▁mistake.":9691,"▁70":6062,"▁SP":7324,"▁World":5240,"▁wireless":11793,"ster":3465,"ク":793,"▁Palestin":4761,"▁significant":6487,"▁platform":6569,"eney":7386,"▁happens.":9166,"▁disappe":8771,"▁beautiful":4898,"ش":486,"▁Small":10662,"▁ris":10908,"andal":11542,"►":659,"▁even":1445,"ian.":6201,"▁meet":3661,"▁moron":6781,"r/":2296,"oo":1101,"▁created":4378,"▁dream":4539,"ENT":6299,"rat":6339,"▁regarding":8010,"▁wow,":8608,"▁said.":4944,"iled":10565,"appe":7479,"▁arguments":7001,"irrel":11661,"▁today.":5261,"ater.":4299,"▁cake":6817,"▁hon":6857,"unny":4592,"▁legs":9160,"▁nations":9850,"▁libertarian":6141,"ing*":10681,"▁teenag":10547,"neck":8652,"ces.":8001,"CC":7786,"▁donate":10512,"▁Given":8966,"▁ME":5877,"0)":11767,"▁ston":7681,"▁character":3787,"▁Irish":10249,"ו":447,"news/":5527,"▁bor":3690,"ife,":9255,"▁li":1113,"☛":680,"her":1321,"iod":4241,"▁col":2887,"͗":308,"using":3603,"▁different":1944,"▁convinced":7491,"□":654,"res":1943,"▁occur":6060,"▁months.":7606,"a\"":9527,"▁supposed":2881,"ered.":9903,"▁pil":8560,"-r":5765,"▁init":5682,"▁east":9032,"▁Saturday":11582,"z.":7064,"▁W":1100,"cluding":9106,"▁items":9825,"r.":3143,"_w":7365,"▁hilarious.":8169,"▁engin":9239,"kward":6794,"▁solution":4719,"▁ey":2587,"▁can,":10328,"▁existence":6543,"▁vi":2799,"-j":8306,"blogspot":8829,"ry,":9124,"▁Hot":9153,"完":889,"ex":1946,"▁condit":5116,"▁finding":5480,"▁Men":7313,"▁society.":8301,"▁understand.":7485,"▁services":8020,"▁&gt;D":8636,"able?":10927,"▁morons":11599,"▁ah":9693,"▁Wait":3358,"▁pock":6466,"ah,":4121,"▁photo":4967,"▁irony":7371,"▁Wow.":5294,"▁homeless":8718,"▁boo":4067,"▁will.":7123,"bre":9331,"▁Upvote":10395,"▁says":2285,"ract":2398,"heart":10313,"▁conven":7462,"lig":5362,"rite":9271,"▁gar":9146,"▁.":2287,"augh":10277,"▁pos":2768,"▁power":2400,"▁Things":10667,"ially":3423,"ú":164,"▁look":1418,"▁calling":3681,"▁course,":4264,"▁tough":5899,"▁frame":6945,"笑":945,"ves.":4158,"▁heart":3807,"▁scale":7804,"▁medium":10525,"▁disp":9880,"▁holds":10331,"ama":1845,"iving":2876,"▁God":2172,"▁suffer":8137,"▁order":3017,"30":3180,"er:":8051,"tinypic.com/":11034,"OUS":11549,"er.":1421,"▁English.":10622,"▁*a":11733,"photobucket.com/albums/":11200,"▁administr":10880,"▁influ":5815,"▁sub":1619,"lying":3626,"na":9140,"ael":5373,"ellig":9601,"▁page.":5887,"ND":11407,"▁under":1539,"UTF":10070,"我":906,"▁Sadly,":9442,"▁distribution":11737,"د":481,"ural":2954,"▁all.":2672,"▁dude":4064,"el.":6558,"▁snow":7828,"net/":5507,"▁walk":3481,"k":77,"Y!":11060,"▁things":1766,"...I":5153,"老":951,"°":110,"▁pop":2165,"▁launch":6581,"▁rot":7984,"▁really?":8108,"▁ax":8963,"▁soldier":10016,"!!!!!":10090,"♂":690,"onest":2451,"E.":5099,"▁Che":3642,"▁series":5393,"ros":5483,"▁abuse":6889,"izing":3812,"▁spo":7931,"▁kern":10321,"▁complain":4311,"▁expand":8492,"▁Fore":11451,"▁:":1497,"▁hire":7723,"▁due":3629,"▁stream":7867,"▁intellig":3602,"at":1018,"는":981,"▁libert":4571,"▁\"C":4147,"¤":101,"鬼":974,"▁THE":2597,"▁used.":11710,"▁chain":9419,"i's":10845,"▁smo":2623,"▁mon":1818,"ices.":7045,"▁300":7377,"▁/s":9352,"omething":8320,"▁better.":3762,"▁gender":8418,"▁Sarah":8007,"lo":2072,"▁situ":3031,"▁what?":3751,"▁trend":7431,"ˆ":222,"while":8025,"▁pays":8454,"▁stands":8182,"̘":249,"url":9120,"ic.":2232,"▁mental":6024,"▁lin":10526,"▁humor.":11035,"▁earn":5738,"▁still":1489,"▁British":4739,"▁that":1067,"▁avail":3886,"▁come":1899,"م":496,"▁farm":5881,"▁financial":6588,"RM":6544,"▁different.":7230,"▁Right,":7939,"▁meeting":8573,"▁destroying":11609,"▁Rep":2797,"urd":4950,"▁consens":11641,"▁bring":3136,"♝":700,"▁taste":5015,"--------":6478,"▁mother":3111,"o.uk":5803,"▁Ha":6221,"▁Austral":4443,"▁confl":6895,"▁gear":9741,"▁Don":11522,"▁Die":11629,"知":942,"ite":1340,"▁c":1024,"▁removed":7097,"8":28,"▁incl":2732,"esus":2737,"▁[m":11069,"▁Es":5241,"RRRR":9377,"rom":4089,"▁mat":5827,"▁raise":5904,"▁working":2648,"▁time":1456,"▁cover":3952,"▁mod":2759,"ilar":2563,"alt":5449,"▁angry":5755,"izes":6559,"AB":8422,"▁wr":1449,"♩":707,"▁stuck":5188,"▁company.":8917,"▁patent":9379,"▁\"It's":9821,"▁correl":9904,"/":19,"▁criticism":9566,"▁calls":5975,"▁unnecessary":11876,"▁sn":2723,"ave":1610,"ately,":5426,"▁some":1231,"▁merely":6447,"▁awh":10808,"▁Part":5540,"atics":11351,"▁ever.":4955,"▁does,":9416,"▁women,":9472,"▁VP":11466,"▁advocate":11297,"rect":2058,"▁becom":3940,"ign":1519,"-f":2483,"▁independ":6263,"c.":6409,"▁Web":9099,"ploy":2997,"ר":464,"▁think":1218,"▁I'd":1707,"ANT":7337,"な":760,"▁average":3771,"▁Cap":5759,"▁course":2371,"▁mov":2911,"▁\"st":6872,"▁Fin":7083,"▁birthday":7633,"▁Canada,":10155,"▁replied":11134,"▁spoken":11509,"▁Du":11198,"▁compan":2258,"▁gonna":3077,"▁boom":11715,"▁FY":9695,"▁company":3222,"eople":1209,"▁bear":5644,"ophob":8553,"▁actual":3257,"▁partic":2973,"▁Edit:":2733,"iest":4577,"⠊":718,"▁contract":4841,"ib":1791,"▁funny":2522,"▁tear":7775,"▁&gt;If":9172,"்":531,"▁upd":4573,"▁Def":5431,"▁enc":3956,"oom":6840,"▁sm":1718,"▁Lol":8209,"▁WTF?":8516,"▁REA":6196,"▁answ":2271,"cons":4398,"****":8613,"eed":9309,"▁unfair":9656,"photobucket":10631,"▁Nice":4392,"IG":4447,"▁pronounce":10712,"▁crap,":10602,"▁batter":6115,"▁love":1736,"▁decad":11072,"▁regret":8605,"▁peanut":11276,"▁abus":11435,"-k":11709,"▁anger":11859,"▁J":1331,"▁comp":1398,"aph":2330,"▁elaborate":11245,"ould":1107,"▁seriously":3561,"▁visual":9105,"▁O'":7981,"▁Need":10585,"▁disk":11790,"▁German":4206,"▁stra":3130,"▁old,":7895,"ensive.":8214,"▁side":2631,"▁carrying":8732,"oth":1682,"▁document":4598,"▁treated":7656,"▁phones":10869,"▁music":2890,"YY":6874,"▁streets":11139,"▁operating":8195,"conom":2510,"▁fals":10906,"▁treat":3313,"▁fucked":4008,"▁mom":2465,"▁threat":4111,"▁vol":4418,"8/0":6079,"▁teen":5536,"▁fundamental":6787,"ables":8065,"▁stereotyp":8125,"▁bad":1628,"link":8185,"▁Anything":8116,"▁tea":9405,"▁criminals":11114,"▁stol":7674,"fly":11652,"»":114,"▁active":9129,"▁fully":5732,"lp":1862,"▁bro":2669,"▁others.":6425,"▁sarcasm":5202,"▁jo":1888,"▁PS":5165,"▁ch":1255,"lin":5518,"olar":8620,"▁pathetic":9881,"▁Libertarian":10219,"ging":3567,"▁CS":6984,"▁presented":11972,"bles":10011,"▁elev":10283,"ic":1055,"man":1906,"▁event":3865,"ude,":3795,".c":5320,"リ":821,"▁Par":7037,"illa":6827,"▁beliefs":7250,"andon":9531,"educ":9794,"iddle":3021,"▁meat":4808,"▁MY":5896,"▁liberal":5007,"▁everything.":6345,"▁bored":7256,"▁camer":3892,"▁goddamn":6825,"▁articles":5853,"▁leads":8216,"▁iron":4596,"ury.":10120,"▁Lat":10211,"נ":458,"ear":1330,")?":4558,"▁host":4704,"or,":4105,"▁labor":9161,"product":7542,"whelm":9853,"erry":6602,"▁mall":10715,"▁off?":11300,"▁experiences":11358,"▁fuck":1439,"▁twice.":11606,"o":81,"berry":11749,"its":2273,"▁Sex":8581,"pg":2069,"ttp://":1239,"ILL":5249,"▁dying":7321,"▁closed":7409,"▁two.":8224,"▁usage":9588,"▁awesome":2645,"pace":9734,"aaa":10359,"dot":9051,"aven":6073,"▁divor":8625,"▁mouth.":9647,"▁it's":1278,"▁Mac":3684,"▁windows":5583,"▁rules":5278,"▁destro":4060,"fil":8878,"20":2369,"esome.":10298,"▁lung":11076,"an?":11141,"▁corpor":3734,"▁Correct":8556,"▁illegal":3761,"▁recall":6469,"▁distract":9027,"▁tank":6566,"▁sense":2508,"♖":693,"▁object":3896,"▁costs":5256,"▁worse.":7139,"et,":4468,"▁included":7912,"ross.":10730,"21":11461,"▁describe":6577,"▁itself.":6897,"▁bizar":10955,"seud":11487,"▁stood":11617,"▁creation":6910,"rument":10710,"ting":1518,"▁*p":8884,"▁penalty":11581,"-th":7757,"▁demo":3408,"≠":593,"ics":1918,"▁Nobody":5673,"fort":2642,"▁claim":2464,"р":416,"ruction":6235,"▁difficult":4035,"▁--":2545,"▁Man,":5907,"Ф":397,"◼":669,"ER":1960,"◔":665,"▁name":1859,"▁1000":7427,"anta":8063,"▁tub":8280,"▁Guy":8308,"htm":2148,"ying.":8489,"▁violent":7319,"ss":1372,"▁worry":4000,"-cl":7945,"▁*sh":8746,"▁You've":5096,"▁can":1157,"parent":9504,"om":1045,"ient":2697,"▁friendly":9621,"qu":1246,"ifferent":10489,"▁effect.":10497,"غ":491,"▁nasty":9328,"▁Jesus.":10977,"▁bicy":11197,"▁\"Why":11122,"望":925,"iforn":5010,"▁cred":6556,"76":5468,"▁this...":8689,"▁allowing":9142,"3/":6323,"arah":7022,"iation":9371,"qual":11389,"▁compar":5043,"▁Har":5693,"B.":11369,"▁sec":2656,"▁escape":10281,"ま":767,"┼":615,"▁past.":11385,"ians":2218,"▁prof":2544,"▁words":3211,"▁Firefox":5052,"▁What?":6074,"▁warn":5543,"▁metal":6537,"▁complaining":7539,"▁Stay":11228,"▁You're":2024,"▁profess":4159,"▁convert":7406,"ace,":7419,"▁Adam":11379,"▁holes":11448,"▁Fucking":5737,"ouse":2182,"udge":10657,"VE":3830,"青":972,"▁beaut":4146,"▁write":3053,"▁weigh":9206,"▁sucked":10760,"▁hard.":7161,"据":909,"▁giant":5608,"▁colleg":6391,"▁example":2970,"▁publish":7457,"▁conclusion":8923,"▁Black":5129,"▁nu":8934,"▁peace":5647,"▁downvoted.":10470,"-2":8213,"▁American.":10467,"blog":4027,"▁tradition":7076,"-sh":5136,"inate":5696,"▁commit":6954,"▁draft":11806,"s*":8520,"wear":10818,"PP":10948,"land,":9722,"▁president.":8858,"▁union":9143,"▁belongs":11217,"▁spam":5364,"alse":4651,"▁English":3249,"▁forward":5076,"i":75,"▁struct":6653,"♬":710,"ration":4205,"▁But":1504,"-C-C":8789,"▁gener":2076,"side":2941,"uploads/":9145,"▁Obama's":6238,"▁Wel":6685,"olution":3270,"▁Arab":5071,"ors":1869,"▁law.":6327,"itt":1420,"▁careful":9359,"▁bothers":11738,"▁American,":11771,"er,":1911,"oh":2319,"▁will,":11908,"▁friend,":9184,"▁provided":7968,"ł":183,"face":5107,"▁car.":6759,"▁er":3201,"▁checking":8579,"▁fails":10521,"▁ter":1820,"on":1016,"✔":713,"▁god,":6497,"؟":468,"S":53,"▁torture":7080,"▁nat":3858,"inform":9060,"▁Mor":9165,"▁bab":2809,"▁City":9665,"大":880,"▁planning":7793,"BA":11068,"▁references":10457,"on-":2338,"▁LOL":4548,"▁getting":1876,"▁shad":9080,"▁service.":9947,"com.":11109,"rill":3811,"▁anyway?":8826,"▁Ab":5074,"▁shot.":9464,"ulate":6302,"wordpress.com/":10781,"icture":2126,"▁particip":7534,"▁deep":4273,"▁search":3175,"orough":9751,"▁G":1226,"oles":4368,"▁monkey":8436,"͞":315,"7/0":9872,"▁pronounced":10305,"▁i've":5854,"▁Considering":9127,"ject":1979,"ͭ":329,"++":4090,"▁busy":7183,"▁here":1471,"thes":10263,"▁purs":10387,"▁worry,":9047,"▁DA":10654,"▁spray":10153,"▁apparently":4353,"▁Before":7562,"▁Ann":11081,"▁Ex":2193,"▁weren't":4018,"s://":11206,"OUT":10996,"̦":263,"▁cow":4871,"▁damned":8505,"ilight":9058,"▁Game":9348,"▁tape":8921,"▁downmodding":11612,"us,":4421,"prof":7813,"ά":346,"ple":1835,"▁mentions":11618,"▁millions":5573,"soci":5668,"▁DNA":11514,"▁appreciate":5465,"up.":6410,"▁including":5305,"ere":1213,"al?":10224,"▁bre":2184,"▁actually":1511,"і":431,"▁god":2315,"ape":3525,"▁me!":6852,"̴":277,"▁Stewart":8623,"DF":9456,"eries":11728,"mo":1466,"▁roll":4174,"l":78,"100":5630,"▁ridiculously":11107,"iam":7173,"ั":539,"▁software":3424,"▁De":3058,"aying":6369,"▁else,":8504,"▁yourself":2300,"HAHAHAHA":9558,"ination":3903,"▁fair,":6665,"apt":6134,"▁fag":9935,"m...":6554,"▁uniform":11175,"▁pain":3007,"£":100,"Θ":335,"▁plans":8904,"̗":248,"then":9205,"ist":1166,"▁crap":3013,"▁murdered":9506,"⠓":721,"ɑ":202,"γ":352,"▁night,":9376,"▁upmodded":9596,"▁ladies":10736,"▁parents":3487,"▁anyone?":10895,"pir":3608,"▁easily":4150,"▁church":4213,"ó":158,"ublic":1853,"▁lie.":9661,"▁&lt;3":11269,"▁http://www.c":11378,"▁dig":4438,"▁Name":11416,"▁provides":10076,"less":1686,"urb":3163,"▁fee":11846,"▁Act":2370,"udd":4519,"▁certain":2321,"ant,":7436,"▁wash":7730,"▁val":2423,"ide":1299,"⊙":599,"▁her.":4169,"̿":288,"75":4960,"▁ignor":3258,"▁Ev":5532,"▁scient":3451,"▁cig":6324,"▁picture.":7977,"▁exactly.":10158,"♡":704,"▁long":1667,"i,":4780,"ivers":5323,"▁claimed":8703,"▁FUCKING":6264,"atural":8425,"eff":5437,"iver":10235,"ced":2066,"ש":465,"▁intellectual":8483,"▁here,":3647,"an,":4074,"▁Bu":5666,"▁stop.":9911,"ual":1672,"DD":8736,"▁Brit":3637,"-p":2962,"onic":8677,"▁regardless":6038,"ames":4804,"▁experience,":9488,"▁saying.":7962,"▁percent":5238,"▁chees":8779,"](http://m":10054,"-H":10522,"▁R":1228,"▁prevent":4948,"▁ass.":5142,"MA":7838,"comfort":8570,"▁perm":6243,"anny":9712,"▁accurate.":11801,"▁only":1360,"law":7671,"youtube.com/watch":2102,"▁database":11460,"▁majority":3843,"ore.":10841,"▁consumer":10183,"pre":6704,"▁him":1464,"olve":11877,"▁lose":3866,"▁desire":7537,"aspx":8420,"▁adopt":10198,"▁ain't":6239,"͆":291,"/comments/8":9983,"▁esc":5609,"▁cheap":3596,"l=":7111,"▁Window":8135,"▁Dan":8170,"vest":8287,"▁writ":6521,"▁hunt":9423,"▁unfortunately":9718,"▁tight":8435,"▁contribute":11165,"▁billions":10142,"ivid":3727,"▁motion":11791,"rench":4063,"ci":1338,"kes.":8595,"▁\"You":5733,"▁100%":4441,"▁garb":7066,"▁beg":9687,"MENT":11675,"▁32":9103,"▁se":1143,"og":1437,"▁evil":3527,"▁Windows":3745,"/d":3766,"▁:P":4375,"▁income":5728,"▁bread":7095,"▁shopping":10214,"▁Perl":10474,"ers!":9287,"prot":11168,"▁friend":1793,"▁told":2689,"▁It":1183,"gest":3919,"dro":9870,"×":132,"チ":803,"agg":6504,"▁mel":9399,"▁supposedly":11187,"80":3484,"▁egg":5659,"ablish":6505,"你":852,"cel":8527,"▁atheist.":10446,"iqu":4306,"▁resources":7905,"▁should":1371,"▁label":6250,"pm":9910,"▁shocked":10300,"age.":2417,"arely":4585,"▁term":2448,"he":1080,"▁media":3482,"▁west":9958,"cellent":5239,"iche":7144,"▁separ":5042,"izations":9364,"好":883,"▁actions":6467,"hack.":8634,"ucks":7892,"▁Beat":9913,"▁bodies":11315,"ile.":6082,"▁head.":5729,"yy":6636,"icit":6154,"▁meg":9590,"▁genoc":8404,"-and":7435,"▁tre":4031,"▁height":10511,"▁pictures":4463,"▁hidden":9274,"▁Gr":3646,"▁ONE":9559,"▁existed":10970,"▁draw":4454,"▁Well,":2110,"kcd":7085,"▁service":4617,"▁murder":4162,"ى":500,"▁very":1551,"eter":5471,"▁plann":5789,"▁ho":8415,"▁\"sh":10859,"▁need.":11123,"▁fact":1727,"▁ult":5880,"▁apply":5842,"▁own":1657,"▁School":9623,"▁dick.":7899,"レ":823,"▁ma":1247,"▁non":5354,"▁rent":6436,"▁vers":2487,"▁alien":6261,"ie":1265,"c0":8311,"▁Fed":5474,"whe":8437,"▁\"Wh":4606,"▁reply":4748,"video":9782,"ut":1085,"▁sure":1567,"▁laugh":2687,"☒":679,"un":1104,"▁22":9119,"oul":4428,"▁towards":4694,"▁forget":3114,"▁like":1162,"reat":1444,"leas":2498,"▁ped":4639,"▁appeal":9227,"▁ethnic":9477,"▁shel":10518,"▁Rog":10947,"▁men,":11584,"么":837,"▁terrif":9543,"̆":232,"2008/0":8134,"▁gotta":5164,"tm":2070,"jpg)":7090,"▁\"What":7432,"▁every":1387,"▁Met":7122,"▁opinion,":8785,"levant.":8951,"▁too...":9593,"ue.":4758,"▁Oh,":2810,"DP":11038,"▁anec":11755,"▁about":1205,"▁quoting":11912,"▁coming":3182,"★":674,"▁Yea":10561,"ou":1010,"▁fold":7358,"!?":6128,"and":1188,"fm":8342,"♥":705,"▁gradu":6944,"▁okay.":10468,"▁stuff.":4853,"list":8315,"R.":9650,"ven":1293,"▁hol":5612,"▁exist":2375,"youtube.com/":2086,"one.":2446,"▁more.":4095,"▁Naz":5151,"▁Apparently":5214,"▁Mormon":10495,"▁movies":4667,"ung":3655,"▁Jav":4641,"▁Ant":7145,"ond":2194,"▁knew":2942,"▁chat":10580,"pped":4495,"hem":4263,"▁personality":11274,"was":10619,"▁doubt":3164,"▁ste":2778,"form":3460,"人":842,"▁att":1713,"oral":7342,"▁text":3125,"ace":1506,"exic":5147,"▁becoming":6428,"▁familiar":6777,"▁Nazi":8112,"▁Neither":8757,"▁too?":6255,"▁early":4708,"▁Wind":3241,"▁once.":6071,"▁american":6461,"Τ":341,"S!":7048,"▁Georg":8052,"▁western":8273,"kn":5995,"▁ack":8764,"rip":8820,"▁bar.":11026,"▁infect":8074,"ow.":4313,"▁finger":6989,"▁homework":8796,"▁funny,":6366,"▁Seems":5262,"love":9551,"▁thin":8765,"_is":9256,"▁conclus":5886,"▁to?":7243,"▁grasp":10302,"▁So,":3365,"▁alone.":7736,"▁link":1905,"v=":2082,"ries":3039,"▁mach":3227,"▁60":5073,"▁pay":1779,"▁appear":4951,"▁loud":5458,"▁Say":7958,"ison.":8168,"▁pre-":9336,"▁friend.":6291,"▁idiots":6295,"▁lot.":6591,"▁serious?":11286,"ל":454,"▁uncle":9625,"▁credit":3776,"▁`":4674,"▁ball":2945,"▁on,":4374,"▁war,":9049,"▁dead":2670,"▁loss":6851,"▁pretend":6450,"▁asshol":9537,"▁ref":2023,"essed":9428,"▁answered":8632,"▁Gen":5080,"▁[N":6931,"▁poly":10008,"ay":1082,"▁dont":3300,"▁reddit.":3389,"▁self-":4974,"N'T":6538,"arently":3144,"▁\"B":4175,"ose":1380,"▁copy":3702,"▁comments.":6342,"ess.":3015,"▁bang":7423,"ZZ":10713,"ude.":4649,"▁together":3320,"▁hiding":10375,"▁fucking":1788,"▁Free":6640,"–":549,"▁vamp":11744,"▁point.":2991,"▁trick":4685,"lers":11504,"▁try.":10428,"▁brut":9481,"IV":7289,"▁left.":9264,"▁Water":10807,"ä":143,"▁identify":9956,"▁comm":1787,"ained":5607,"▁i.":9303,"▁message":4854,"wikipedia":1962,"▁support":2101,"▁equivalent":6856,"▁Wrong":8246,"▁self":2663,"ivity":9159,"atter":1977,"用":937,"gle":1996,"ieve":5229,"▁asks":9004,"▁su":1224,"▁push":4712,"▁bombs":11399,"▁ended":5746,"▁&gt;N":8276,"tf":4214,"▁leg":2025,"ang":1381,"▁players":7719,"▁shooting":6388,"▁gas":4298,"▁Check":5604,"▁imp":2189,"交":841,"☂":671,"▁reg":1986,"▁Vista":7163,"eration":10932,"es,":1431,"▁Americans.":11573,"more":2843,"▁Hah":4532,"▁OUT":10591,"▁modded":11088,"-down":10783,"▁doc":4269,"▁&gt;S":6176,"fire":7178,"ia?":10936,"▁ask":2002,"▁Mc":2509,"▁debt":5269,"▁utter":6980,"possible":4646,"esb":8029,"▁failing":10870,"co.uk":11615,"▁bump":11970,"▁**":1796,"▁fash":7153,"ul":1186,"方":915,"▁Fox":4217,"▁fruit":9864,"oo.":10727,"▁resour":6298,"▁Vot":11062,"mm":1993,"o/":4794,"▁future":3831,"▁is,":2753,"▁fav":2514,"▁match":5346,"▁exclus":7147,"哈":873,"83":9682,"val":5122,"▁intention":6207,"▁distance":9425,"∧":586,"▁bott":3268,"▁print":4718,"ory,":7960,"▁downvotes":8275,"▁meaning":3968,"Ω":345,"▁questions.":9639,"ever":1841,"▁*s":4187,"▁w/":9824,"k,":8145,"▁boobs":10077,"▁racist.":8987,"▁do?":5762,"▁am":1379,"wich":6149,"ه":498,"▁Sur":8894,"\u0012":4,"▁fire.":10445,"▁RED":10684,"▁CPU":10848,"▁trees":10946,"▁prop":4101,"▁rush":10979,"▁allow":2665,"▁boat":9115,"ood":1273,"▁here!":11045,"▁jer":8399,"▁compl":2846,"ribution":7554,"▁respond":4448,"ostic":8926,"your":5633,"el,":9893,"▁tin":10586,"▁tells":5856,"法":932,"▁*that*":8953,"hill":11906,"▁follow":3325,"▁ut":4624,"right":1353,"▁bandwidth":11161,"ext":2892,"▁shit.":3312,"28":7126,"▁submitted":6754,"ident":1851,"▁fun,":10103,"▁ending":7195,"▁do.":2875,"▁worship":9285,"▁(n":9394,"▁thought.":7942,"CE":6847,"▁say?":9607,"м":412,"▁Lots":8847,"▁dealing":8431,"▁show":1731,"](http://www.m":9228,"▁Street":10543,"ÿ":169,"ed.":1362,"ase,":10091,"▁bac":3668,"▁incorrect":6603,"▁dunno":9914,"▁he'd":5988,"owing":2449,"article":6183,"▁happening":6715,"enced":6703,"▁mult":3414,"Е":385,"▁issue":3492,"▁visit":5948,"vis":9569,"▁link.":6418,"▁sword":9855,"ses":10143,"▁tab":4409,"z,":11277,"害":891,"≈":592,"▁Where's":8797,"要":955,"C_":1057,"Re":6023,"▁anonymous":10893,"▁movie":2513,"imes":2488,"▁religion,":9286,"▁though.":2236,"▁employees":8034,"_and":8093,"▁Sp":3025,"Π":339,"▁drive":3063,"agon":5945,"▁West":6639,"▁with.":4730,"▁(like":7973,"_f":6167,"ь":427,"▁incident":7590,"▁GO":8223,"▁it...":4740,".com/)":8365,"▁site,":9765,"▁FUCK":3589,"▁imper":10352,"▁met":2149,"▁everybody":5411,"▁slap":11048,"ж":406,"▁imm":2783,"▁be":1065,"▁est":4347,"ű":194,"’t":7726,"index":4968,"▁dry":7494,"▁virtual":11952,"ard.":4800,"▁poorly":9342,"▁approach":6426,"ing.":1403,"ch.":9365,"▁largest":8302,"▁voice":4884,"▁19":2432,"▁art":1710,"▁clicking":8536,"cast":5703,"app":2081,"▁Jewish":5504,"▁example,":5833,"▁bul":8782,"▁Olymp":11067,"▁WANT":11291,"▁AM":4889,"▁right":1402,"others":7613,"▁posts.":10560,"▁dunn":8253,"▁Unfortun":4903,"AL":4092,"rastruct":10139,"▁Fre":5327,"▁Con":3721,"clop":11529,"▁bit.":7166,"͠":317,"▁!=":7033,"▁Pen":11465,"▁cops":4645,"▁4chan":5383,"▁forces":8555,"_s":5245,"策":946,"▁numbers":5063,"▁improve":6471,"▁die":3345,"1/":5508,"arch":1939,"ilos":4752,"▁Scient":6587,"▁mac":5184,"▁super":2891,"▁C++":6437,"▁sir":3617,"▁sp":1443,"▁shot":2900,"ified":3754,"39":8464,"▁might":1814,"ƒ":199,"ety":3085,"▁Frank":6881,"▁unw":8615,"sey":10097,"▁Everybody":10254,"200":2176,"-spe":11116,"n":80,"▁sticking":11298,"▁demand":5258,"▁age.":9447,"ier.":7265,"▁french":9686,"▁Cub":11761,"imate":3532,"ure,":6322,"サ":796,"rawn":9219,"aking":2390,"▁impro":4648,"▁normal":3910,"▁misleading":11892,"▁spare":11036,"in":1005,"σ":368,"▁karma":4201,"▁ALL":5505,"▁compreh":7444,"%2F":9468,"▁sock":7532,"▁batt":10203,"▁us?":11494,"有":924,"▁aware":4316,"alled":8626,"izar":9764,"▁etc.":3054,"▁grew":6570,"▁task":9381,"be,":9672,"ean":11759,"美":950,"▁Something":5993,"\"":6,"©":105,"ides":3118,"ST":4930,"▁sho":6795,"▁dire":6939,"▁Acc":5931,"ar":1047,"▁soft":3089,"▁Look,":10961,"▁kidding":7911,"▁Happy":11789,"▁interest":1949,"▁unb":8867,"ial":1768,"▁es":2666,"cience":4921,"der":1332,"▁network":5386,"/2":3540,"32":5424,"feature=":6901,"EO":7849,"▁mar":2362,"-e":7940,"help":8506,"▁conce":9302,"urop":9494,"▁Sweden":11872,"3.":4430,"▁Californ":5439,"客":890,"▁useful":4619,"obal":4775,"▁survive":8638,"▁massive":5597,"f=":9991,"▁hom":3422,"▁then.":4043,"▁guess":1920,"str":4547,"▁yeah":2403,"▁emotion":9708,"▁Nothing":4354,"▁mid":5289,"是":919,"▁norm":3049,"▁leaves":8321,"/comments/":3436,"▁smarter":9572,"▁zero":6092,"pl":1345,"■":653,"arett":6922,"▁online.":11735,"▁(and":3129,"▁journal":6683,"▁slut":11706,"▁infring":11847,"me":3569,"▁Either":5641,"a,":1879,"▁she's":3105,"ɯ":211,"ait":1805,"poss":4305,"▁life,":5878,"\")":6862,"the_":4811,"ocrit":8043,"s-":8979,"▁pet":5013,"▁em":1826,"▁talked":7688,"▁crying":9087,"ue,":9387,"▁WWII":9845,"ically":1717,"able,":4773,"▁thousand":6135,"▁Human":10362,"べ":766,"▁150":10571,"▁Valve":10732,"▁menu":11101,"▁These":3792,"▁rage":11368,"▁curios":8511,"▁highly":5561,"▁Pak":8913,"▁suggests":11778,"▁decides":11915,"▁linked":6117,"▁25":4563,"▁triv":9503,"▁'n":10805,"▁San":7766,"▁vent":11381,"▁fall":2894,"▁polic":3398,"▁up,":3597,"▁Real":7226,"▁play.":10868,"▁and":1066,"▁return":4171,"▁website":4499,"İ":181,"Б":381,"▁circum":5290,"ushing":6185,"press":6758,"▁point,":4749,"imes,":11246,"▁almost":2399,"▁ear":2837,"о":414,"ī":179,"iv":1432,"▁Muslim":4282,"▁sudd":5497,"▁federal":5534,"y-":10903,"▁images":6888,"r":84,"uns":8600,"▁citizens":6168,"▁groc":8830,"v":88,"UU":2761,"▁jumping":10728,"ֶ":438,"▁me":1142,"▁information":3917,"▁offer":5674,"ner.":9849,"▁everywhere.":10058,"▁level":2769,"▁AMA":10516,"y.com/":8427,"▁wife.":10914,"▁boycott":11386,"▁to.":3649,"▁notice":4211,"ishing":5172,"▁lif":1761,"아":987,"▁they're":1978,"als":2307,"⠞":725,"▁them,":3435,"ues":4309,"▁train":4435,"▁letting":6936,"ness,":7441,"ة":475,"▁M":1145,"▁hist":2775,"ception":8211,"▁direction":7445,"●":664,"▁commenting":9446,"▁lobby":9483,"▁explicit":9513,"##":10273,"▁inject":11025,"▁baby.":11592,"▁Aren't":9781,"▁Mark":7716,"9.":5095,"▁NE":6080,"g.":5167,"▁gift":6373,"▁sleep":3697,"▁Aut":11306,"▁Blue":9798,"コ":795,"▁second.":10801,"_h":6398,"▁one:":11758,"▁you:":11497,"▁?":3356,"▁promot":7982,"▁obama":9307,"▁dam":4597,"actually":11931,"▁bright":7260,"▁winter":11380,"esh":7160,"▁tempor":11969,"▁regist":6555,"dered":4599,"س":485,"▁branch":9462,"▁(P":10382,"▁governments":10612,"bs":2256,"म":516,"rew":4149,"▁afterward":10904,"erm":3449,"light":3384,"▜":649,"nov":9126,"▁emphas":11556,"▁Hell,":7584,"▁attacks":7675,"in'":3275,"friend":5086,".*":10350,"▁fiction":11313,"lier":6381,"▁usual":7683,"▁breast":6835,"19":3856,"field":8529,"▁iss":2261,"▁audio":9338,"▁speech.":11184,"ذ":482,"ire":1367,"ab":1195,"igure":2519,"▁neighb":4505,"͒":303,"同":870,"明":917,"▁obvious":3674,"▁Put":6254,"ron":3471,"aine":7827,"▁We've":8258,"▁Redditors":9016,"mas":5900,"▁lawyer":9869,"▁Damn,":7863,"ife":2386,"edly":8778,"▁yellow":9888,"▁please":2932,"AYS":11224,"▁tie":11321,"▁book,":9279,"▁by":1308,"▁joke":2374,"▁Relig":7933,"▁mad":4215,"▁politician":9133,"▁posted":3363,"▁char":2155,"▁rul":3610,"isk":3854,"vers":1691,"▁dude,":7448,"▁CNN":7864,"▁soci":3108,"▁being":1457,"▌":639,"▁cris":8836,"sw":2121,"▁chemical":8251,"▁reduce":9134,"aff":3433,"▁WTF":3808,"▁interests":10260,"▁seconds.":10270,"▁was,":6677,"ian,":7089,"ð":155,"▁machine.":10584,"▁veget":6508,"oice":10598,"▁election.":10838,"▁**I":11191,"▁Downmodded":11646,"red":1774,"that's":9277,"▁University":9638,"AST":11250,"ɪ":210,"ward":2099,"▁fac":3122,"ili":4330,"-to-":9530,"┬":613,"▁raid":11757,"▁design":3096,"▁these":1668,"ig":1189,"re.":9633,"ton":3061,"▁produ":2312,"▁comic":5487,"47":7105,"▁word.":6303,"even":8161,"▁i'll":8165,"ि":524,"▁Qu":3544,"▁1.":3034,"结":949,"iss":1581,"▁below":6028,"▁downmodd":6432,"▁beach":9389,".html).":10930,"▁entirely":4693,"▁forg":3240,"outub":2022,"▁doct":3796,"w.":1346,"rain":8850,"▁van":9763,"▁mouse":6277,"▁Haw":9846,"▁Nazis":10448,"▁lifest":10969,"▁year":1429,"Israel":11456,"▁http://www.reddit.com/r/":5352,"▁Right.":10306,"▁claims":6107,"ी":525,"ana":4122,"▁opening":8397,"▁all,":4042,"al,":4237,"▁trill":9711,"▁meth":4024,"出":859,"per":1510,"▁growing":6732,"ixt":11126,"▁ST":4308,"▁one?":6289,"▁organization":8403,"▁dri":1997,"▁Pleas":7847,"▁\"The":3735,"oil":4846,"▁Weird":9878,"▁anything?":10245,"lets":11897,"ering":2332,"▁Col":5021,"▁marriage":5655,"▁tooth":10028,"▁Nope,":7222,"▁schools":7366,"leted":1651,"▁Yup,":10910,"和":872,"▁back,":7261,"▁frequ":6075,"▁theory":4810,"hole":11821,"▁higher":4188,"▁ridiculous":4492,"▁they'll":4634,"▁arr":8754,"D.":4907,"▁mark":2259,"▁orang":9320,"▁assist":10660,"▁tail":9067,"▁spin":7378,"▁guarantee":9410,"▁associated":10094,"ons":1733,"▁further":4822,"▁ug":5155,"ru":2244,"vy":8019,"▁Time":6190,"imageshack.":8927,"),":2112,"▁strategy":11137,"led":2282,"57":11162,"▁likes":5203,"▁responsibility":7424,"達":968,"igger":9835,"▁trade":6674,"▁cartoon":9164,"▁elabor":7627,"us/":7152,"▁economy.":10850,"▁trave":4411,"OME":6617,"▁satisf":8670,"▁favour":7005,"▁peop":8773,"▁Congrat":8845,"EEPLE":11929,"les,":7292,"‮":564,"▁put":1720,"*.":2726,"▁sad":2744,"ת":466,"al":1069,"boy":5734,"▁auto":8345,"sh":1480,"▁beef":9421,"▁dise":6259,"CT":6311,"c":69,"▁seen":2021,"▁phone":3509,"II":4021,"▁valu":6407,"ufact":6865,"▁Brown":10311,"oops":6775,"▁[the":8842,"け":742,"orrow":5498,"▁mot":3804,"ͬ":328,"▁extrem":3467,"▁then":1409,"▁patch":8676,"ely":1839,"▁proport":9628,"▁advice.":11052,"ud":1386,"▁py":11129,"▁crim":3562,"▁code.":8340,"iders":11450,"▁instance,":11278,"न":513,"▁CP":7929,"ayer":7229,"▁thinking.":9236,"▁warrant":8300,"▁surely":8148,"¿":115,"▁jud":3469,"Ψ":344,"▁slight":4366,"▁Didn't":5472,"·":113,"▁practice":6724,"▁Hamas":6822,"▁cable":7473,"IE":8257,"▁favor":2866,"ction":2183,"▁co-":9374,"▁would've":7808,"▁signed":8235,"▁9/11":5145,"▁warning":9248,"▁chocol":8368,"▁sometimes":3746,"▁range":8346,"▁fantas":10406,"▁LOT":10490,"▁traditional":10538,"▁fast":3555,"▁_":2819,"ange":2741,"html":2364,"▁South":4873,"▁internet.":5288,"▁retarded":5467,"ulated":9335,"▁democratic":9680,"▁read,":10922,"ival":4698,"the":1807,"▁no":1279,"ror":2301,"▁Add":7787,"‬":562,"▁red":2842,"▁social":2914,"jo":7585,"▁flip":9297,"aly":10422,"where":2221,"-v":11669,"▁8.":10626,"▁select":5414,"▁get":1203,"▁resolution":10423,"▁positions":11864,"sell":10577,"▁pedoph":8985,"▼":660,"ured":4065,"▁United":4831,"oust":9109,"▁failure":8184,"aged":3654,"▁rob":4350,"▁7.":10323,"ipped":6290,"▁glad":3664,"▁subject":3908,"_P":8266,"▁Ice":8405,"ory.":3874,"ney":5338,"place":8265,"▁Democrat":9402,"▁amusing":11150,"kin":6744,"omin":11962,"▁using":1968,"son":4196,"▁played":3672,"cha":11610,"゚":783,"▁say":1303,"reddit.com/":2252,"izz":4079,"rant":5788,"???":4661,"▁Really,":10290,"ͣ":320,"▁tend":4007,"2":22,"很":894,"▁pleasure":11348,"uct":4735,"▁oh":3599,"▁sharing":9211,"▁poop":7586,"▁excited":8564,"ency":5041,"▁matter":2213,"▁dumb":3165,"xkcd.com/":11811,"▁headline.":11259,"▁constitution":6350,"▁House":6741,"▁forms":10611,"▁Iraq.":11434,"▁question":2045,"rational":9427,"oh,":11486,"sk":4553,"meric":1625,"▁artist":8604,"▁WHO":11248,"▁creating":7277,"▁continu":5280,"af":3587,"io":2693,"▁anything.":4091,"▁Dude":8041,"▁Pal":2958,"ling":2880,"▁Sub":7213,"▁optim":8566,"▁all":1194,"!!!!":2575,"▁above":3514,"▁same.":5791,"▁till":6713,"82":9479,"aries":5911,"▁drawing":9654,"search?q=":9432,"▁Afric":4781,"ated":1547,"▁belie":1594,"▁\"I'm":6457,"ounter":10084,"▁smooth":11128,"▁view.":11635,"▁nar":7770,"rup":3463,"▁none":4842,"ment.":2947,"idge":6392,"▁workers":8510,"▁already":2061,"ora":11708,"ly,":1734,"▁copyright":7284,"▁knowledge":5227,"▁\"F":4669,"/A":9963,"▁eyes.":9584,"▁declare":11152,"▁languages":6676,"I.":7136,"▁quickly":6172,"▁suggesting":7297,"ol":1182,"▁refer":3367,"a-":5219,"▁there?":5412,"fl":3104,"▁daily":6597,"▁sounds":2585,"▁brown":6904,"▁side,":10358,"▁obvious.":10364,"▁accur":4210,"▁be,":7121,"▁Buff":10744,"▁lot,":11393,"▁Ah,":4699,"-0":7540,"▁stop":1891,"▁opportun":6026,"▁Pre":3961,"▁threw":8554,"í":152,"▁day?":10137,"▁laws":3819,"work":2917,"er":1017,"▁\"R":6576,"▁Yep,":7079,"▁mic":8861,"▁population":4517,"▁am.":9267,"ifies":9045,"mer":1474,"▁build":2749,"▁Has":4584,"▁hurt":3692,"-g":4561,"onse":3877,"▁BS":8495,"̐":241,"ession":6148,"ris":5605,"ns":7098,"▁word,":10714,"*?":6158,"▁confused":5698,"▁remind":3873,"▁guy?":10991,"▁now,":3390,"▁months,":11808,"▁Min":8317,"男":938,"read":1537,"य":517,"š":191,"▁aut":3236,"...)":10113,"▁NEVER":9533,"▁Imagine":7211,"▁end.":6550,"▁sources":8071,"▁throwing":6470,"estern":5405,"▁\"Th":10826,"▁(O":11006,"▁Mo":7398,"▁te":1555,"▁invented":7468,"▁forth":10786,"iant":4991,"edi":3712,"̈":234,"acle":8585,"▁dinner":9614,"like":2857,"▁Flash":7831,"▁give":1847,"▁sir.":6157,"▁pl":1302,"▁manufact":7191,"kind":10237,"▁Have":2915,"▁speed":4054,"▁compared":4973,"jor":2506,"rial":7731,"o\"":11519,"ְ":436,"▁dark":4717,"inated":6630,"eop":1202,"น":536,"mb":4010,"▁star":3935,"▁fund":3208,"▁DOES":11967,"▁mainstream":7551,"▁so?":9860,"▁magnet":10945,"▁histor":5726,"▁Gaza":10800,"rupt":4415,"̖":247,"▁l":1044,"▁state":2031,"▁views":7322,"▁assumption":8499,"▁ath":9431,"▁Bay":11299,"▁PA":10208,"▁joint":9059,"phone":6688,"▁stat":3217,"⠗":723,"_M":8693,"▁argu":4902,"’":553,"▁them":1295,"▁reading":2632,"▁lower":4746,"OS":7172,"raz":8248,"▁practically":10039,"▁mention":2526,"▁aggress":7978,"▁wire":6338,"▁partner":11188,"▁answering":11932,"▁bong":11350,"▁slow":3585,"▁energy":4627,"▁upmod":6714,"▁http://www.s":10333,"▁Cre":8459,"ac":1092,"ril":10529,"▁redneck":10698,"alf":2266,"▁bat":6673,"▁jeal":8747,"▁restaur":6258,"▁Tre":6930,"3,":8193,"ƃ":198,"▁pack":3816,"▁christ":4666,"▁ess":5056,"▁programming":5011,"title":7182,"eal":4751,"π":365,"ific":2120,"ension":6007,"▁nice":2356,"不":832,"▁7":2310,"▁hot":2607,"▁fear":4045,"▁suc":3659,"-up":4710,"um.":5923,"▁no?":9667,"▁burned":10678,"▁Polit":10752,"rovers":8296,"▁stre":3366,"η":356,"▁moment":4733,"▁aside":6999,"▁Simps":10599,"▁disaster":10607,"▁homosexual":6286,"▁joy":10968,"ric":2366,"╤":623,"▁Seriously,":4626,"▁II":9862,"▁cam":10680,"▁Two":5669,"over":3500,"▁teac":3889,"▁it'd":7192,"▁Ok":2986,"▁:)":1988,"▁Sh":2053,"▁middle":3406,"▁suff":3879,"▁\"h":4142,"▁jew":5030,"▁sandwich":6620,"▁plug":5838,"▁thread,":9838,"our.":11625,"▁advertising":9498,"vi":6623,"▁lift":9891,"▁debate.":11798,"avery":8909,"▁adv":2445,"®":109,"rael":2055,"▁public.":11707,"ony":2847,"▁YEA":10396,"▁troops":8795,"▁aim":7556,"▁plain":6385,"ose.":8402,"▁implement":5215,"▁up.":2367,"▁situation.":7164,"▁store":3185,"ONE":7385,"▁14":5130,"/4":6756,"60":3229,"▁away,":9457,"orrect":4360,"▁yet?":8354,"▁*":1215,"ate?":7293,"▁And,":8160,"**.":5937,"er?":3658,"▁(wh":4083,"▁clar":6166,"▁This":1438,"▁seem":1644,"▁bunch":3283,"▁time,":3315,"ation.":1954,"▁skin":5144,"ő":187,"§":104,"ett":4859,"▁Does":2453,"▁digg":5284,"▁care":1808,"iously":2026,"arily":3943,"▁attract":4176,"▁atheism":6913,"▁pants":6751,"▁enter":7029,"▁development":7087,"oos":5893,"▁64":9030,"ters":2895,"▁HTML":9064,"who":8343,"▁Britain":10556,"▁sum":3895,"▁professional":7027,"▁inside":3937,"▁consider":3087,"▁cry":4327,"▁of":1051,"▁useless":6256,"▁http://www.youtube.com/watch?v=":3391,"▁sales":7219,"ients":7961,"▁package":9901,"rr":4325,"▁WHY":10665,"▁Odd":10701,"▁[T":7327,"▁stupidity":10835,"▁vote":2450,"▁(but":10837,"OOK":11327,"n't*":11838,"▁af":3860,"▁used":1759,"▁A:":11740,"==":6031,"▁unfortun":5580,"Σ":340,"言":958,"vent":6312,"▁player":6301,"▁server":4829,"▁case.":5866,"ention.":8299,"ers,":2569,"()":8411,"ened":5892,"▁[P0]":1041,"只":868,"▁genuine":7270,"▁cream":8970,"▁comments,":9409,"png)":8002,"ils":7871,"▁anyway":2657,"▁includes":8688,"ヽ":829,"afe":9135,"▁Dr.":7199,"▁honor":10449,"▁tied":10700,"▁(which":5169,"▁recomm":4102,"ee":1760,"▁Take":5044,"▁\"J":7193,"▁advant":6352,"wik":1557,"▁50%":7802,"▁Shit,":10672,"▁messages":10745,"ed...":10532,"ness":2505,"ck":1164,"▁cast":6431,"▁YouT":8357,"▁source.":9844,"국":978,"▁http://www.":1740,"▁quot":4082,"26":5882,"estic":8992,"under":5093,"▁Because":2205,"#":7,"atri":7115,"news.":8304,"▁Kind":6129,"ę":177,"48":10780,"EG":11288,"▁funny.":4194,"▁cheaper":6748,"edia":1665,"chn":2502,"▁stage":10015,"▁pr":1428,"▁feet":6151,"%3":8366,"▁analys":9020,"▁tow":6287,"oooooooo":7143,"less,":7384,"ale.":10205,"▁steal":4312,"▁intelligent":5464,"anish":6919,"▁award":10204,"▁Funny,":11809,"▁Gl":4231,"▁body":3627,"t's":5408,"WN":8312,"▁narrow":11812,"celer":10762,"▁Ire":10985,"▁univers":4069,"々":729,"ef":2433,"▁to":1036,"▁drink":2598,"▁help.":6975,"bag":4732,"▁stand":2073,"ets":2435,"▁scientist":11290,"ie=UTF":10588,"▁and/or":6707,"в":402,"leep":3284,"erc":4281,"▁important.":10394,"cr":2537,"▁rat":6077,"e,":1329,"̟":256,"▁rule":4750,"▁policy":5676,"▁forcing":9634,"気":930,"▁key":3234,"▁plastic":6681,"IP":6789,"▁Like":3116,"▁everyone's":10145,"▁Pet":11718,"ipedia":1849,"▁;":2594,"ographer":11837,"eb":5861,"xic":8113,"allow":7295,"ki":10159,"▁&gt;I'm":11988,"ences.":10096,"▁shift":7714,"▁Java":5797,"▁travel":5554,"▁constant":8200,"▁Pri":10652,"▁neat":10357,"▁boot":5834,"ems":3984,"m,":4050,"ew":1531,"▁primary":8021,"▁hope":2225,"ͥ":322,"▁twenty":10735,"▁dedicated":10806,"m":79,"▁instant":9168,"▁internet":2166,"̪":267,"y's":7706,"▁technically":7330,"iform":10329,"라":985,"▁fe":1384,"▁gig":7367,"▁cigarett":7459,"←":570,"▁discussing":10372,"▁fake.":10900,"▁Enjoy":10262,"☄":673,"▁share":3756,"96":5841,"▁prem":6440,"▁first":1579,"▁First":4006,"▁five":4565,"plement":4797,"▁civilians":9311,"▁fond":11998,"▁awes":2162,"!!!!!!!!":5874,"icro":3145,"▁referring":4567,"ved.":5718,"▁little":1729,"▁trans":2620,"▁font":7773,"▁drug":2868,"▁approx":11212,"▁African":8728,"▁up!":10115,"▁crime":4895,"▁pointless":9430,"co":6738,"▁simple.":9571,"▁Char":11727,"▁Sm":4939,"imes.com/":11946,"▁Hol":9358,"▁ang":4258,"▁hundreds":6637,"ifying":7841,"▁wondered":7742,"▁GOP":8372,"▁evidence.":9092,"▁convenient":10042,"▁Top":10324,"▁cameras":10478,"▁entry":10557,"▁worthy":11403,"▁Hy":11546,"▁drives":8105,"▁yet,":6361,"▁morning.":9776,"▁justify":7235,"▁mathem":7904,"▁easy.":9055,"▁keeps":5477,"間":970,"anted":7416,"▁wrote":4165,"very":1243,"-P":7608,"rive":8432,"▁Also,":2543,"▁pee":6726,"▁They'll":10761,"̹":282,"!!":1476,"▁$200":11201,"▁Yeah.":6485,"▁Cent":7624,"▁lied":11885,"illing":7125,"ow,":5224,"Z":60,"▁Did":2231,"▁recent":4796,"▁Leg":7591,"▁assass":11940,"omet":1411,"▁saying":1934,"▁happens":3324,"▁CD":6562,"uri":2800,"▁What's":2675,"any":4153,"+":15,"))":6284,"%":9,"▁torrent":6959,"▁&gt;P":9187,"◤":667,"▁camp":3278,"▁los":3767,"♛":698,"▁bow":5825,"▁hack":5171,"▁flow":8371,"▁quarter":10102,"▁Holy":4524,"▁board":6124,"Ü":136,"ouble":3926,"oog":7597,"▁developers":8390,"▁perform":4279,"ub":1358,"est.":5173,"gged":8594,"ically,":5502,"by":3075,"▁sky":7811,"ision.":11921,"▁y":1043,"▁hall":8207,"arry":10252,"▁exposed":11659,"▁emp":8176,"▁BTW,":10847,"▁Ju":10706,"▁asshole.":6839,"▁probably":1719,"▁site.":6297,"▁*really":8450,"▁coast":10455,"rated":6511,"さ":745,"▁Otherwise":10442,"unk":2546,"▁spec":2760,"reddit.com/r/":2774,"▁terror":3432,"▁Pretty":5398,"ilet":5438,"▁photos":7248,"▁Exactly":8316,"▁buy":1985,"ِ":504,"▁TH":1989,"▁[F":6807,"▁thrown":7965,"hib":6612,"▁(b":7979,"▁Bost":11202,"▁Cook":11346,"▁clarify":11506,"̄":230,"▁name.":5183,"o,":2329,"ity.":2114,"▁heaven":8236,"▁intended":7353,"ister":4689,"▁irrational":10655,"▁Somehow":10986,"▁tested":11680,"▁blow":4460,"▁skills":8381,"▁Se":2418,"▁government.":5966,"▁motherfuck":7236,"orse":8452,"学":888,"ue":1482,"reh":6145,"▁Cut":10436,"▁pisses":11404,"▁hy":4364,"φ":371,"▁th":1004,"ack":1259,"art":1254,"▁adult":4908,"▁dislike":7655,"▁\"D":4178,"▁hypocrit":8562,"▁Franc":11923,"▁Jim":8409,"rim":4768,"rier":11338,"con":1502,"▁cycle":11881,"ive":1261,"も":770,"atically":4916,"▁ta":1364,"ox":1795,"ē":176,"ode":2284,"ership":6864,"▁ins":1825,"̞":255,"▁expected":6351,"δ":353,"▁video":2195,"▁named":5254,"▁though":1636,"▁Sure":3520,"▁choice":4191,"def":5489,"▁noticed":4572,"▁heads":7582,"▁inj":7737,"▁multi":9111,"▁mortg":9907,"▁(D":10458,"▁turt":10488,"ake.":11147,"▁bridge":11283,"▁material":5103,"▁Cons":4683,"▁WAS":7915,"THING":10628,"ツ":805,"▁You":1216,"▁respect":3317,"▁guns":5198,"▁dollars":4485,"▁Once":5231,"▁Seriously.":7081,"UUUUUUUU":7855,"ATION":11294,"▁oblig":7753,"▁badass":10443,"▁spaces":11785,"▁ton":4725,"▁Seriously":5452,"▁Obama.":7203,"▁bl":1435,"▁secret":4199,"▁way":1424,"▁original":2927,"▁day.":3193,"▁reported":9262,"▁awesome!":10573,"▁USA.":11532,"▁budget":7154,"?\"":2736,"▁algorith":9100,"▁powers":9989,"ould*":11713,"▁Israel,":11765,"▁okay,":10191,"▁grade":6699,"▁Lord":9704,"▁accomplish":7759,"ature":2179,"▁freaking":8550,"ven't":2352,"▁abort":4764,"▁vill":9859,"▁page,":9545,"n.":8574,"lear":4137,"▁Personally":11232,"ucinich":7006,"▁\"...":10383,"は":764,"▁science":3472,"▁So":1477,"▁strong":3546,"a?":3777,"Qu":10309,"▁nail":7046,"̍":238,"n't":1146,"▁watched":4469,"▁contact":5823,"͈":293,"olit":4593,"ד":445,"▁hey,":8800,"comments/":2822,"▁Girl":7918,"I,":8706,"▁arrog":9731,"▁bathroom":7039,"▁cross":4678,"onent":9242,"▁television":9769,"я":430,"▁go":1191,"23":6735,"▁perhap":9677,"▁Wars":9725,"ason":1616,"▁means":2243,"▁d":1032,"▁possibly":4318,"͙":310,"מ":456,"▁know":1258,"▁concern":4475,"au":4899,"▁north":8838,"▁Tur":10014,"▁rail":10046,"IRE":10919,"▁*t":7724,"ildren":9681,"ble":1336,"▁indust":3944,"▁expert":7707,"bing":5222,"▁hot.":8419,"▁fashion":8890,"▁dup":10174,"ization":3677,"▁families":11687,"▁buff":8333,"▁connect":4059,"͋":296,"▁obv":2337,"▁stink":11171,"▁context.":9521,"▁right,":3726,"▁comment,":6666,"▁2:":8467,"ist?":9805,"▁witness":9544,"▁puzz":11829,"▁root":6909,"▁compil":7662,"uggle":11889,"▁took":2619,"国":874,"▁(A":6268,"aed":10353,"cept":1728,"see":6893,"▁Cle":5918,"al.":2219,"▁Boy":8229,"t.":3939,"e.com/":1928,"▁Un":2050,"▁location":10894,"▁cy":5025,"▁deny":7310,"▁edit":2556,"▁front":2807,"ahahahah":8622,"▁target":5263,"ittle":1698,"▁scen":3901,"•":559,"▁Que":7893,"▁relatively":7678,"▁physics":8424,"▁possible":2717,"⠥":726,"▁Pr":3757,"45":4656,"imming":11772,"▁Pot":9340,"▁5.":7880,"ariju":5124,"12":2839,"▁ago":2934,"▁home,":9507,"▁stating":9518,"posed":2557,"▁adm":2560,"ಠ":532,"aim":2313,"untu":5196,"▁Obama,":9455,"icien":10078,"xkcd":10092,"lessly":10639,"fall":10653,"ference.":11873,"there":9310,"▁*d":6088,"▁Te":4329,"▁beginning":6378,"▁crack":4484,"╝":621,"▁Were":7660,"▁live":1922,"▁Bat":9346,"ban":9523,"ount":1451,"we":1654,"▁taxes":4840,"aced":8714,"▁Mat":11235,"▁code":3181,"▁Catholic":7732,"▁complaint":11414,"▁happ":1568,"▁AID":9775,"▁polit":2233,"▁Nah,":6760,"▁distinct":10419,"▁bash":10724,"e?":10176,"▁island":10296,"id.":5867,"▁appropri":5212,"OOOOOOOO":7215,"▁status":7920,"▁Rob":8181,"irect":2612,"▁(with":9144,"ACT":10190,"▁\"N":4379,"▁you?":2576,"▁insist":8781,"▁settle":8843,"̀":226,"▁warm":4759,"▁pur":2582,"▁honestly":4976,"▁div":4713,"▁sorry,":5616,"▁truck":6069,"oshop":5835,"angel":8978,"▁that's":1563,"▁degrees":10180,"ò":157,"▁once":2230,"incol":11975,"▁AW":9553,"͐":301,"▁Net":8174,"▁missing":4173,"▁stuff":2078,"▁Google":3245,"eah":1528,"▁center":8329,"▁Democrats":6625,"agger":8289,"▁who's":4769,"▁stops":10429,"▁fought":11843,"▁real,":11392,"▁educ":3517,"▁Democratic":10107,"▁bet":1856,"▁Ask":7050,".php?":11166,"ison":3041,"▁this.":2178,"▁assault":6879,"▁theor":11117,"▁Hi":10575,"▁imply":7857,"▁here.":2393,"ym":5767,"IF":8434,"▁arbit":9181,"▁impact":7502,"▁Could":4209,"▁We're":4284,"▁assumpt":11634,"▁vir":4377,"ify":3183,"▁ads":6260,"▁seen.":7631,"ish,":9737,"▁hand":1821,"FFFF":7392,"▁mand":7596,"▁contrad":8429,"active":11484,"ancing":8976,"▁regular":3885,"▁usern":4856,"▁expensive":4836,"▁dogs":7069,"▁counter":5443,"▁money.":3899,"▁relative":5433,"▁ourselves":9858,"ope":1933,"New":10165,"li":2984,"▁poss":2115,"▁collect":4212,"▁stories":4623,"▁&lt;":3184,"ark":1621,"▁CH":6937,"▁Fun":11247,"▁Cl":2756,"▁problem,":7275,"▁knowled":10814,"▁provide":4384,"▁Law":7149,"▁great,":7218,"▁diamond":11732,"▁Mus":3823,"▁hosp":6018,"▁reflect":6921,"▁temper":7853,"7":27,"acking":9646,"▲":658,"▁exec":4929,"▁prefer":3148,"▁Paul.":9830,"](http://en.wikipedia.org/wiki/B":11993,"▁ashamed":9934,"▁Middle":9941,"aware":10261,"▁lying":6113,"▁reform":8472,"▁fresh":6285,"▁hero":6293,"▁Muslims":7614,"▁USB":10483,"▁Fant":11552,"ham":5235,"ñ":156,"▁serious.":9808,"▁locked":9592,"▁walking":5535,"▁conso":8109,"'ll":1744,"ert":1776,"▁Robert":3392,"▁contr":4987,"▁parts":5189,"、":727,"▁jobs":5782,"▁Twitter":10036,"ate,":3730,"_B":9084,"▁native":7401,"resent":3947,"▁would.":9985,"itting":2817,"▁S":1106,"▁moment.":9162,"▁Yay":10967,"͂":289,"▁idea":2133,"▁bottom":4650,"◥":668,"▁combat":11296,"▁direct":2930,"t":86,"▁sensitive":11518,"▁earlier":7025,"ication":10589,"▁conv":3190,"://":1235,"ogn":3997,"▁troll":2784,"▁Ye":4979,"▁decisions":9509,"þ":168,"é":148,"▁*I":5763,"▁defend":5727,"▁blood":3878,"前":862,"▁private":4139,"reme":7478,"oot":2042,"▁evol":7819,"▁cure":9960,"▁wikipedia":7196,"▁head":1910,"▁Wo":6638,"▁exc":3329,"▁says,":9113,"▁protection":10009,"▁grown":8166,"/g":6958,"▁question,":6414,"͖":307,"▁comprom":10877,"▁cert":8991,"▁Thank":1897,"ucket":9496,"▁understand":1868,"pres":8469,"▁right?":2833,"ive.":2826,"▁fight":2752,"\\*":4999,"air":1887,"ph":1794,"▁comment.":4227,"▁Everything":6828,"▁Usually":9034,"▁now...":9102,"☠":682,"▁UP":5656,"▁puts":6823,"org":1618,"▁...and":6863,"......":9252,"ious,":6725,"o)":9465,"▁poo":9980,"▁A":1093,"▁Your":2316,"ene":6473,"▁period":4670,"oooo":3194,"/10":9002,"▁Florida":11525,"▁Tw":3568,"κ":359,"▁resident":10572,"_S":8009,"▁harass":10282,"▁theories":11375,"▁clear":3370,"▁inc":2016,"▁damage":6811,"▁person's":11083,"\\_":8501,"▁reports":11153,"if":1129,"̢":259,"ism.":3360,"▁FOR":6173,"▁\"un":10790,"not":2087,"antly":3781,"▁immig":6785,"olut":2853,"▁trad":4494,"atives":4820,"S,":7484,"amer":3202,"▁*every":10860,"▁blue":5250,"▁relig":2089,"ity":1334,"rem":2647,"▁environment":6132,"▁from.":7785,"ally":1130,"av":1590,"▁central":8238,"▁efficient":7550,"▁fart":8821,"vernment":1877,"ised.":9091,"▁Dep":5355,"▁song.":9568,"forum":10421,"事":840,"▁addition":10548,"▁St":1570,"▁Science":7993,"▁it:":8748,"▁incompet":11160,"▁drive.":11924,"▁make.":11712,"ITH":7825,"▁Gu":3466,"ز":484,"▁vegetarian":9694,"▁drunk":4200,"▁France":9532,"▁numb":4338,"▁US":1747,"▁reb":7247,"▁soda":11918,"?!":2716,"fre":10447,"viron":4679,"▁nom":6441,"▁instead.":6987,"▁brill":6051,"▁trial":10899,"▁mus":2298,"▁other,":10355,"▁there.":2382,"que":5307,"uh":6170,"▁better,":6995,"▁invent":7687,"▁electron":8341,"▁Mar":4637,"ep":1357,"erson":1600,"▁myself":2391,"▁tired":5058,"▁balls":5520,"itution":3644,"▁managed":6720,"ollywood":9539,"otta":10399,"▁Wii":11491,"▁PO":10126,"▁BM":11762,"▁Stupid":9018,"ok":5159,"ilty":6367,"▁go,":8982,"▁AT&amp;":11082,"▁Got":6671,"ments":3377,"▁[de":1676,"ly":1077,"s!":3590,"Ö":131,"yp":1963,"▁Islam":5365,"▁Old":6965,"̂":228,"▁satis":7288,"SS":4380,"▁90":4455,"▁FTFY":5557,"apping":6374,"▁pressure":8514,"▁blog":3851,"epend":5046,"▁overwhelm":10759,"l=en":8233,"▁messed":11009,"ider":5023,"▁conspir":5024,"-w":3149,"▁badly":9354,"▁health":2428,"▁wise":10130,"▁tests":10499,"▁contribut":7190,"▁\"d":4037,"▁wtf":6066,"▁famous":7902,"▁administration":8877,"▁therap":11511,"▁infinite":9204,"it":1019,"ば":765,"▁IM":4729,"gen":3772,"ier":2207,"▁stores":9981,"ent":1088,"▁Death":9263,"▁tone":10041,"▁....":6465,"C.":5855,"▁cere":9886,"_.":10161,"▁having":2020,"▁oper":3801,"▁method":4630,"stood":5273,"▁Don't":2048,"stem":1947,"ats":2276,"̔":245,"▁[I":4692,"▁too!":5916,"▁True,":7935,"▁squ":3770,"▁levels":8532,"▁OR":8722,"player":9385,"▁KN":9552,"inge":10663,"▁pointing":5496,"rt":10846,"f":72,"▁guess.":6472,"respect":10035,"▁PM":9238,"▁(m":7040,"▁Forg":9547,"m.":4771,"▁drawn":11463,"▁&gt;It":11543,"2008":11800,"ared":2858,"来":928,"▁minutes.":7997,"▁release":5828,"ios":10695,"一":830,"▁problem.":4131,"▁beating":8075,"▁park":6214,"op":1114,"▁GM":9246,"overy":9609,"▁devil":10787,"▁cath":11322,"▁passed":6629,"ase.":6656,"▁miss":2117,"▁room.":9439,"▁distribut":9619,"▁idiot":2589,"AR":2849,"▁They":1470,"36":5440,"▁sw":2235,"▁Back":6912,"pet":5332,"▁scroll":8756,"▁[h":9636,"▁changed":4612,"ly*":10755,"▁#":3475,"/B":10417,"et":1074,"▁via":5952,"'t":1083,"iet":3978,"▁2000":6475,":":30,"ʎ":219,"▁fans":8156,"ctu":8711,"-O":9062,"و":499,"▁ban":4307,"▁Luck":9085,"▁dismiss":9675,"▁proceed":11343,"▁Fut":11547,"▁inde":3921,"▁verb":7314,"rist":1948,"▁15":3501,"▁ver":4397,"mmmm":7411,"▁free,":10071,"▁bond":11677,"avid":6670,"▁huh?":7665,"▁tour":7309,"ob":1534,"icial":7523,"2.":3826,"▁commercial":5347,"-gr":11349,"▁dance":9640,"Α":331,"fer":2616,"▁pow":4073,"▁marry":7057,"ines.":7796,"▁Still,":8837,"ger.":10258,"ure":1298,"▁onto":5688,"▁*not*":7233,"ile":1465,"ody":1783,"dom":4168,"/?":9367,"apse":8955,"▁race":5205,"?!?!":7328,"SEP]":1008,"▁OF":5315,"ק":463,"子":886,"arm":1852,"▁close":3008,"▁father":4221,"▁pile":9792,"▁Wow":2469,"I":43,"▁0":3280,"▁Since":4106,"▁muslim":6850,"isely":9852,"▁roughly":10349,"▁skip":10361,"ddamn":5845,"mate":8417,"▁gym":11655,"▁from,":11936,"▁produced":10066,"le,":6013,"▁most":1505,"▁basically":3579,"ictionary.":8971,"act":1317,"ナ":810,"▁bought":3635,"▁film":3612,"▁douche":3994,"cious":5175,"fic":3495,"▁try":1584,"▁conspiracy":5954,"atheism":10063,"▁18":3970,"▁manufacture":10675,"ales":5649,"\"...":7792,"Ο":338,"▁mistake":4783,"wikipedia.org/":1990,"▁newsp":7717,"▁gra":8649,"ube.":10453,"▁Comm":6160,"▁Meg":11799,"▁archite":11866,"▁twice":5306,"あ":733,"▁In":1532,"▁blame":4371,"▁encour":6200,"▁Funn":9081,"gging":10157,"uses":3861,"▁experienced":9630,"▁annoying":5662,"๏":544,"▁morn":4348,"▁fits":11237,"▁new":1582,"les.":4653,"(":12,"▁,":6015,"▁din":6438,"▁repeated":8139,"▁net":3453,"▁+":3082,"ade":1538,"7/":5626,"estion":8804,"ded":10686,"▁retarded.":7821,"▁Buddh":10475,"less.":4905,"_d":5986,"▁$3":7874,"▁comed":9063,"▁Australian":10839,"cer":11370,"▁plants":9877,"英":953,"p-content/":9459,"▁until":2145,"ン":825,"ives":2361,"est":1197,"▁tip":5336,"▁desktop":6595,"▁let":1739,"▁looked":3592,"ted":5102,"aper":2995,"▁mine.":7776,"▁football":7555,"▁It's":1344,"▁quant":8123,"pos":1894,"▁harsh":9608,"▁flo":4466,"ocracy":11028,"▁sole":8173,"⇒":576,"spot":7767,"▁9":2014,"▁Whenever":10371,"▁wom":1741,"▁paper":4242,"▁slowly":8082,"▁walked":7998,"ć":173,"▁innoc":5310,"▁our":1674,"▁skept":9788,"ipp":2699,"▁$1":3372,"▁government":1938,"▁looks":2224,"▁beard":10944,"▁\"Y":6855,"▁prin":4776,"▁port":3799,"▁this,":3026,"シ":798,"▁morning":5984,"▁Ob":1837,"▁apple":7916,"sect":10558,"▁Zealand":11430,"オ":789,"▁herself":7814,"▁dad":3900,"♫":709,"▁[C":5863,"of":2729,"▁interpret":6399,"▁karm":3427,"▁wide":6406,"ч":423,"inux":2918,"▁enem":5872,"hhhh":6248,".)":7738,"▁disappointed":8874,"ic.com/":9350,"▁*l":9774,"▁buddy":10726,"dev":11151,"▁error":5377,"eat":8575,"▁isnt":9283,"▁needed.":11328,"eral":3510,"▁rain":7016,"▁rely":11447,"▁characters":7332,"wing":10095,"idth":8658,"ann":2097,"ians.":6592,"▁score":6525,"iance":8400,"▁Clinton":5715,"▁wave":8975,"﴿":998,"▁From":3705,"▁neck":7514,"†":557,"angu":2404,"________":11636,"▁variety":11564,"▁Especially":5530,"æ":145,"▁idiots.":10501,"▁police":3159,"▁soul":6492,"▁His":2565,"▁stretch":7836,"](http://en.wikipedia.org/wiki/C":10879,"▁Here's":4157,"ov":4640,"ugh":2434,"▁fol":4437,"▁compare":6147,"▁bailout":7530,"NG":9653,"▁O":1174,"ict":1545,"▁minutes":3507,"asc":3775,"▁hous":4493,"▁requires":6008,"▁square":8189,"▚":647,"▁otherwise.":9738,"▁indeed.":9932,"▁wait...":10463,"▁nit":10638,"▁manner":10793,"▁gun.":10554,"▁*not":6316,"▁exist,":11541,"▁marketing":7851,"ie=":9536,"▁lived":4578,"▁Someone":4317,"▁moved":5525,"▁truly":4714,"▁perce":11176,"▁knowing":4928,"-S":6610,"▁explanation":6882,"N":48,"▁DS":9743,"▁version.":9992,"g":73,"▁privacy":11721,"story":11604,"▁om":7074,"imb":6815,"▁stere":5959,"▁outrage":9433,"▁cook":4154}